{
  "version": "1.0",
  "truncation": {
    "direction": "Right",
    "max_length": 16,
    "strategy": "LongestFirst",
    "stride": 0
  },
  "padding": {
    "strategy": "BatchLongest",
    "direction": "Right",
    "pad_to_multiple_of": null,
    "pad_id": 3,
    "pad_type_id": 0,
    "pad_token": "<pad>"
  },
  "added_tokens": [
    {
      "id": 0,
      "content": "<unk>",
      "single_word": false,
      "lstrip": false,
      "rstrip": false,
      "normalized": false,
      "special": true
    },
    {
      "id": 1,
      "content": "<s>",
      "single_word": false,
      "lstrip": false,
      "rstrip": false,
      "normalized": false,
      "special": true
    },
    {
      "id": 2,
      "content": "</s>",
      "single_word": false,
      "lstrip": false,
      "rstrip": false,
      "normalized": false,
      "special": true
    },
    {
      "id": 3,
      "content": "<pad>",
      "single_word": false,
      "lstrip": false,
      "rstrip": false,
      "normalized": false,
      "special": true
    },
    {
      "id": 4,
      "content": "<sep>",
      "single_word": false,
      "lstrip": false,
      "rstrip": false,
      "normalized": false,
      "special": true
    },
    {
      "id": 5,
      "content": "<mask>",
      "single_word": false,
      "lstrip": false,
      "rstrip": false,
      "normalized": false,
      "special": true
    },
    {
      "id": 6,
      "content": "<cls>",
      "single_word": false,
      "lstrip": false,
      "rstrip": false,
      "normalized": false,
      "special": true
    },
    {
      "id": 7,
      "content": "<|system|>",
      "single_word": false,
      "lstrip": false,
      "rstrip": false,
      "normalized": false,
      "special": false
    },
    {
      "id": 8,
      "content": "<|assistant|>",
      "single_word": false,
      "lstrip": false,
      "rstrip": false,
      "normalized": false,
      "special": false
    },
    {
      "id": 9,
      "content": "<|user|>",
      "single_word": false,
      "lstrip": false,
      "rstrip": false,
      "normalized": false,
      "special": false
    },
    {
      "id": 10,
      "content": "<|available_tools|>",
      "single_word": false,
      "lstrip": false,
      "rstrip": false,
      "normalized": false,
      "special": false
    },
    {
      "id": 11,
      "content": "<|tool_calls|>",
      "single_word": false,
      "lstrip": false,
      "rstrip": false,
      "normalized": false,
      "special": false
    },
    {
      "id": 12,
      "content": "<|tool_results|>",
      "single_word": false,
      "lstrip": false,
      "rstrip": false,
      "normalized": false,
      "special": false
    },
    {
      "id": 13,
      "content": "<|code|>",
      "single_word": false,
      "lstrip": false,
      "rstrip": false,
      "normalized": false,
      "special": false
    },
    {
      "id": 14,
      "content": "<|file|>",
      "single_word": false,
      "lstrip": false,
      "rstrip": false,
      "normalized": false,
      "special": false
    },
    {
      "id": 102397,
      "content": "<|prefix|>",
      "single_word": false,
      "lstrip": false,
      "rstrip": false,
      "normalized": false,
      "special": false
    },
    {
      "id": 102398,
      "content": "<|suffix|>",
      "single_word": false,
      "lstrip": false,
      "rstrip": false,
      "normalized": false,
      "special": false
    },
    {
      "id": 102399,
      "content": "<|middle|>",
      "single_word": false,
      "lstrip": false,
      "rstrip": false,
      "normalized": false,
      "special": false
    }
  ],
  "normalizer": null,
  "pre_tokenizer": {
    "type": "Metaspace",
    "replacement": "▁",
    "prepend_scheme": "never",
    "split": false
  },
  "post_processor": {
    "type": "TemplateProcessing",
    "single": [
      {
        "SpecialToken": {
          "id": "<s>",
          "type_id": 0
        }
      },
      {
        "Sequence": {
          "id": "A",
          "type_id": 0
        }
      },
      {
        "SpecialToken": {
          "id": "</s>",
          "type_id": 0
        }
      }
    ],
    "pair": [
      {
        "SpecialToken": {
          "id": "<s>",
          "type_id": 0
        }
      },
      {
        "Sequence": {
          "id": "A",
          "type_id": 0
        }
      },
      {
        "SpecialToken": {
          "id": "</s>",
          "type_id": 0
        }
      },
      {
        "SpecialToken": {
          "id": "<s>",
          "type_id": 1
        }
      },
      {
        "Sequence": {
          "id": "B",
          "type_id": 1
        }
      },
      {
        "SpecialToken": {
          "id": "</s>",
          "type_id": 1
        }
      }
    ],
    "special_tokens": {
      "</s>": {
        "id": "</s>",
        "ids": [
          2
        ],
        "tokens": [
          "</s>"
        ]
      },
      "<s>": {
        "id": "<s>",
        "ids": [
          1
        ],
        "tokens": [
          "<s>"
        ]
      }
    }
  },
  "decoder": {
    "type": "Sequence",
    "decoders": [
      {
        "type": "Replace",
        "pattern": {
          "String": "▁"
        },
        "content": " "
      },
      {
        "type": "ByteFallback"
      },
      {
        "type": "Fuse"
      }
    ]
  },
  "model": {
    "type": "Unigram",
    "unk_id": 0,
    "vocab": [
      [
        "<unk>",
        0.0
      ],
      [
        "<s>",
        0.0
      ],
      [
        "</s>",
        0.0
      ],
      [
        "<pad>",
        0.0
      ],
      [
        "<sep>",
        0.0
      ],
      [
        "<mask>",
        0.0
      ],
      [
        "<cls>",
        0.0
      ],
      [
        "<|system|>",
        0.0
      ],
      [
        "<|assistant|>",
        0.0
      ],
      [
        "<|user|>",
        0.0
      ],
      [
        "<|available_tools|>",
        0.0
      ],
      [
        "<|tool_calls|>",
        0.0
      ],
      [
        "<|tool_results|>",
        0.0
      ],
      [
        "<|code|>",
        0.0
      ],
      [
        "<|file|>",
        0.0
      ],
      [
        "<0x00>",
        0.0
      ],
      [
        "<0x01>",
        0.0
      ],
      [
        "<0x02>",
        0.0
      ],
      [
        "<0x03>",
        0.0
      ],
      [
        "<0x04>",
        0.0
      ],
      [
        "<0x05>",
        0.0
      ],
      [
        "<0x06>",
        0.0
      ],
      [
        "<0x07>",
        0.0
      ],
      [
        "<0x08>",
        0.0
      ],
      [
        "<0x09>",
        0.0
      ],
      [
        "<0x0A>",
        0.0
      ],
      [
        "<0x0B>",
        0.0
      ],
      [
        "<0x0C>",
        0.0
      ],
      [
        "<0x0D>",
        0.0
      ],
      [
        "<0x0E>",
        0.0
      ],
      [
        "<0x0F>",
        0.0
      ],
      [
        "<0x10>",
        0.0
      ],
      [
        "<0x11>",
        0.0
      ],
      [
        "<0x12>",
        0.0
      ],
      [
        "<0x13>",
        0.0
      ],
      [
        "<0x14>",
        0.0
      ],
      [
        "<0x15>",
        0.0
      ],
      [
        "<0x16>",
        0.0
      ],
      [
        "<0x17>",
        0.0
      ],
      [
        "<0x18>",
        0.0
      ],
      [
        "<0x19>",
        0.0
      ],
      [
        "<0x1A>",
        0.0
      ],
      [
        "<0x1B>",
        0.0
      ],
      [
        "<0x1C>",
        0.0
      ],
      [
        "<0x1D>",
        0.0
      ],
      [
        "<0x1E>",
        0.0
      ],
      [
        "<0x1F>",
        0.0
      ],
      [
        "<0x20>",
        0.0
      ],
      [
        "<0x21>",
        0.0
      ],
      [
        "<0x22>",
        0.0
      ],
      [
        "<0x23>",
        0.0
      ],
      [
        "<0x24>",
        0.0
      ],
      [
        "<0x25>",
        0.0
      ],
      [
        "<0x26>",
        0.0
      ],
      [
        "<0x27>",
        0.0
      ],
      [
        "<0x28>",
        0.0
      ],
      [
        "<0x29>",
        0.0
      ],
      [
        "<0x2A>",
        0.0
      ],
      [
        "<0x2B>",
        0.0
      ],
      [
        "<0x2C>",
        0.0
      ],
      [
        "<0x2D>",
        0.0
      ],
      [
        "<0x2E>",
        0.0
      ],
      [
        "<0x2F>",
        0.0
      ],
      [
        "<0x30>",
        0.0
      ],
      [
        "<0x31>",
        0.0
      ],
      [
        "<0x32>",
        0.0
      ],
      [
        "<0x33>",
        0.0
      ],
      [
        "<0x34>",
        0.0
      ],
      [
        "<0x35>",
        0.0
      ],
      [
        "<0x36>",
        0.0
      ],
      [
        "<0x37>",
        0.0
      ],
      [
        "<0x38>",
        0.0
      ],
      [
        "<0x39>",
        0.0
      ],
      [
        "<0x3A>",
        0.0
      ],
      [
        "<0x3B>",
        0.0
      ],
      [
        "<0x3C>",
        0.0
      ],
      [
        "<0x3D>",
        0.0
      ],
      [
        "<0x3E>",
        0.0
      ],
      [
        "<0x3F>",
        0.0
      ],
      [
        "<0x40>",
        0.0
      ],
      [
        "<0x41>",
        0.0
      ],
      [
        "<0x42>",
        0.0
      ],
      [
        "<0x43>",
        0.0
      ],
      [
        "<0x44>",
        0.0
      ],
      [
        "<0x45>",
        0.0
      ],
      [
        "<0x46>",
        0.0
      ],
      [
        "<0x47>",
        0.0
      ],
      [
        "<0x48>",
        0.0
      ],
      [
        "<0x49>",
        0.0
      ],
      [
        "<0x4A>",
        0.0
      ],
      [
        "<0x4B>",
        0.0
      ],
      [
        "<0x4C>",
        0.0
      ],
      [
        "<0x4D>",
        0.0
      ],
      [
        "<0x4E>",
        0.0
      ],
      [
        "<0x4F>",
        0.0
      ],
      [
        "<0x50>",
        0.0
      ],
      [
        "<0x51>",
        0.0
      ],
      [
        "<0x52>",
        0.0
      ],
      [
        "<0x53>",
        0.0
      ],
      [
        "<0x54>",
        0.0
      ],
      [
        "<0x55>",
        0.0
      ],
      [
        "<0x56>",
        0.0
      ],
      [
        "<0x57>",
        0.0
      ],
      [
        "<0x58>",
        0.0
      ],
      [
        "<0x59>",
        0.0
      ],
      [
        "<0x5A>",
        0.0
      ],
      [
        "<0x5B>",
        0.0
      ],
      [
        "<0x5C>",
        0.0
      ],
      [
        "<0x5D>",
        0.0
      ],
      [
        "<0x5E>",
        0.0
      ],
      [
        "<0x5F>",
        0.0
      ],
      [
        "<0x60>",
        0.0
      ],
      [
        "<0x61>",
        0.0
      ],
      [
        "<0x62>",
        0.0
      ],
      [
        "<0x63>",
        0.0
      ],
      [
        "<0x64>",
        0.0
      ],
      [
        "<0x65>",
        0.0
      ],
      [
        "<0x66>",
        0.0
      ],
      [
        "<0x67>",
        0.0
      ],
      [
        "<0x68>",
        0.0
      ],
      [
        "<0x69>",
        0.0
      ],
      [
        "<0x6A>",
        0.0
      ],
      [
        "<0x6B>",
        0.0
      ],
      [
        "<0x6C>",
        0.0
      ],
      [
        "<0x6D>",
        0.0
      ],
      [
        "<0x6E>",
        0.0
      ],
      [
        "<0x6F>",
        0.0
      ],
      [
        "<0x70>",
        0.0
      ],
      [
        "<0x71>",
        0.0
      ],
      [
        "<0x72>",
        0.0
      ],
      [
        "<0x73>",
        0.0
      ],
      [
        "<0x74>",
        0.0
      ],
      [
        "<0x75>",
        0.0
      ],
      [
        "<0x76>",
        0.0
      ],
      [
        "<0x77>",
        0.0
      ],
      [
        "<0x78>",
        0.0
      ],
      [
        "<0x79>",
        0.0
      ],
      [
        "<0x7A>",
        0.0
      ],
      [
        "<0x7B>",
        0.0
      ],
      [
        "<0x7C>",
        0.0
      ],
      [
        "<0x7D>",
        0.0
      ],
      [
        "<0x7E>",
        0.0
      ],
      [
        "<0x7F>",
        0.0
      ],
      [
        "<0x80>",
        0.0
      ],
      [
        "<0x81>",
        0.0
      ],
      [
        "<0x82>",
        0.0
      ],
      [
        "<0x83>",
        0.0
      ],
      [
        "<0x84>",
        0.0
      ],
      [
        "<0x85>",
        0.0
      ],
      [
        "<0x86>",
        0.0
      ],
      [
        "<0x87>",
        0.0
      ],
      [
        "<0x88>",
        0.0
      ],
      [
        "<0x89>",
        0.0
      ],
      [
        "<0x8A>",
        0.0
      ],
      [
        "<0x8B>",
        0.0
      ],
      [
        "<0x8C>",
        0.0
      ],
      [
        "<0x8D>",
        0.0
      ],
      [
        "<0x8E>",
        0.0
      ],
      [
        "<0x8F>",
        0.0
      ],
      [
        "<0x90>",
        0.0
      ],
      [
        "<0x91>",
        0.0
      ],
      [
        "<0x92>",
        0.0
      ],
      [
        "<0x93>",
        0.0
      ],
      [
        "<0x94>",
        0.0
      ],
      [
        "<0x95>",
        0.0
      ],
      [
        "<0x96>",
        0.0
      ],
      [
        "<0x97>",
        0.0
      ],
      [
        "<0x98>",
        0.0
      ],
      [
        "<0x99>",
        0.0
      ],
      [
        "<0x9A>",
        0.0
      ],
      [
        "<0x9B>",
        0.0
      ],
      [
        "<0x9C>",
        0.0
      ],
      [
        "<0x9D>",
        0.0
      ],
      [
        "<0x9E>",
        0.0
      ],
      [
        "<0x9F>",
        0.0
      ],
      [
        "<0xA0>",
        0.0
      ],
      [
        "<0xA1>",
        0.0
      ],
      [
        "<0xA2>",
        0.0
      ],
      [
        "<0xA3>",
        0.0
      ],
      [
        "<0xA4>",
        0.0
      ],
      [
        "<0xA5>",
        0.0
      ],
      [
        "<0xA6>",
        0.0
      ],
      [
        "<0xA7>",
        0.0
      ],
      [
        "<0xA8>",
        0.0
      ],
      [
        "<0xA9>",
        0.0
      ],
      [
        "<0xAA>",
        0.0
      ],
      [
        "<0xAB>",
        0.0
      ],
      [
        "<0xAC>",
        0.0
      ],
      [
        "<0xAD>",
        0.0
      ],
      [
        "<0xAE>",
        0.0
      ],
      [
        "<0xAF>",
        0.0
      ],
      [
        "<0xB0>",
        0.0
      ],
      [
        "<0xB1>",
        0.0
      ],
      [
        "<0xB2>",
        0.0
      ],
      [
        "<0xB3>",
        0.0
      ],
      [
        "<0xB4>",
        0.0
      ],
      [
        "<0xB5>",
        0.0
      ],
      [
        "<0xB6>",
        0.0
      ],
      [
        "<0xB7>",
        0.0
      ],
      [
        "<0xB8>",
        0.0
      ],
      [
        "<0xB9>",
        0.0
      ],
      [
        "<0xBA>",
        0.0
      ],
      [
        "<0xBB>",
        0.0
      ],
      [
        "<0xBC>",
        0.0
      ],
      [
        "<0xBD>",
        0.0
      ],
      [
        "<0xBE>",
        0.0
      ],
      [
        "<0xBF>",
        0.0
      ],
      [
        "<0xC0>",
        0.0
      ],
      [
        "<0xC1>",
        0.0
      ],
      [
        "<0xC2>",
        0.0
      ],
      [
        "<0xC3>",
        0.0
      ],
      [
        "<0xC4>",
        0.0
      ],
      [
        "<0xC5>",
        0.0
      ],
      [
        "<0xC6>",
        0.0
      ],
      [
        "<0xC7>",
        0.0
      ],
      [
        "<0xC8>",
        0.0
      ],
      [
        "<0xC9>",
        0.0
      ],
      [
        "<0xCA>",
        0.0
      ],
      [
        "<0xCB>",
        0.0
      ],
      [
        "<0xCC>",
        0.0
      ],
      [
        "<0xCD>",
        0.0
      ],
      [
        "<0xCE>",
        0.0
      ],
      [
        "<0xCF>",
        0.0
      ],
      [
        "<0xD0>",
        0.0
      ],
      [
        "<0xD1>",
        0.0
      ],
      [
        "<0xD2>",
        0.0
      ],
      [
        "<0xD3>",
        0.0
      ],
      [
        "<0xD4>",
        0.0
      ],
      [
        "<0xD5>",
        0.0
      ],
      [
        "<0xD6>",
        0.0
      ],
      [
        "<0xD7>",
        0.0
      ],
      [
        "<0xD8>",
        0.0
      ],
      [
        "<0xD9>",
        0.0
      ],
      [
        "<0xDA>",
        0.0
      ],
      [
        "<0xDB>",
        0.0
      ],
      [
        "<0xDC>",
        0.0
      ],
      [
        "<0xDD>",
        0.0
      ],
      [
        "<0xDE>",
        0.0
      ],
      [
        "<0xDF>",
        0.0
      ],
      [
        "<0xE0>",
        0.0
      ],
      [
        "<0xE1>",
        0.0
      ],
      [
        "<0xE2>",
        0.0
      ],
      [
        "<0xE3>",
        0.0
      ],
      [
        "<0xE4>",
        0.0
      ],
      [
        "<0xE5>",
        0.0
      ],
      [
        "<0xE6>",
        0.0
      ],
      [
        "<0xE7>",
        0.0
      ],
      [
        "<0xE8>",
        0.0
      ],
      [
        "<0xE9>",
        0.0
      ],
      [
        "<0xEA>",
        0.0
      ],
      [
        "<0xEB>",
        0.0
      ],
      [
        "<0xEC>",
        0.0
      ],
      [
        "<0xED>",
        0.0
      ],
      [
        "<0xEE>",
        0.0
      ],
      [
        "<0xEF>",
        0.0
      ],
      [
        "<0xF0>",
        0.0
      ],
      [
        "<0xF1>",
        0.0
      ],
      [
        "<0xF2>",
        0.0
      ],
      [
        "<0xF3>",
        0.0
      ],
      [
        "<0xF4>",
        0.0
      ],
      [
        "<0xF5>",
        0.0
      ],
      [
        "<0xF6>",
        0.0
      ],
      [
        "<0xF7>",
        0.0
      ],
      [
        "<0xF8>",
        0.0
      ],
      [
        "<0xF9>",
        0.0
      ],
      [
        "<0xFA>",
        0.0
      ],
      [
        "<0xFB>",
        0.0
      ],
      [
        "<0xFC>",
        0.0
      ],
      [
        "<0xFD>",
        0.0
      ],
      [
        "<0xFE>",
        0.0
      ],
      [
        "<0xFF>",
        0.0
      ],
      [
        "▁",
        -2.657510042190552
      ],
      [
        ".",
        -3.770292043685913
      ],
      [
        ",",
        -3.9282803535461426
      ],
      [
        "0",
        -4.206615924835205
      ],
      [
        "、",
        -4.2291178703308105
      ],
      [
        "▁the",
        -4.245253562927246
      ],
      [
        "1",
        -4.340122222900391
      ],
      [
        "。",
        -4.445507526397705
      ],
      [
        "2",
        -4.521423816680908
      ],
      [
        "s",
        -4.6131978034973145
      ],
      [
        "▁of",
        -4.829411029815674
      ],
      [
        "▁and",
        -4.8366475105285645
      ],
      [
        "▁to",
        -4.880638122558594
      ],
      [
        "-",
        -4.900364875793457
      ],
      [
        "▁a",
        -4.990786075592041
      ],
      [
        "▁in",
        -5.088201522827148
      ],
      [
        ":",
        -5.133455276489258
      ],
      [
        "'",
        -5.210649013519287
      ],
      [
        "3",
        -5.249988555908203
      ],
      [
        "_",
        -5.347549915313721
      ],
      [
        "の",
        -5.358922958374023
      ],
      [
        "5",
        -5.378519535064697
      ],
      [
        ")",
        -5.405670642852783
      ],
      [
        "4",
        -5.453842639923096
      ],
      [
        "▁▁▁▁▁▁▁▁",
        -5.492750644683838
      ],
      [
        "/",
        -5.529387950897217
      ],
      [
        "(",
        -5.5440850257873535
      ],
      [
        "9",
        -5.549984455108643
      ],
      [
        "6",
        -5.650309085845947
      ],
      [
        "8",
        -5.659401893615723
      ],
      [
        "▁is",
        -5.693166255950928
      ],
      [
        "は",
        -5.721198558807373
      ],
      [
        "7",
        -5.7371826171875
      ],
      [
        "ing",
        -5.775734901428223
      ],
      [
        "▁for",
        -5.8116230964660645
      ],
      [
        "が",
        -5.879848957061768
      ],
      [
        "▁that",
        -5.910846710205078
      ],
      [
        "▁▁▁▁",
        -5.918025016784668
      ],
      [
        "ed",
        -5.992473602294922
      ],
      [
        "▁(",
        -6.003383159637451
      ],
      [
        "で",
        -6.061629295349121
      ],
      [
        "・",
        -6.063347339630127
      ],
      [
        "「",
        -6.1022047996521
      ],
      [
        "\"",
        -6.109592437744141
      ],
      [
        "を",
        -6.127287864685059
      ],
      [
        "」",
        -6.131433963775635
      ],
      [
        "と",
        -6.148136615753174
      ],
      [
        "▁with",
        -6.154780387878418
      ],
      [
        "▁on",
        -6.160829067230225
      ],
      [
        "に",
        -6.173007011413574
      ],
      [
        "（",
        -6.318864345550537
      ],
      [
        ";",
        -6.3251633644104
      ],
      [
        "The",
        -6.330571174621582
      ],
      [
        "t",
        -6.356095790863037
      ],
      [
        "▁it",
        -6.366012096405029
      ],
      [
        "▁as",
        -6.396675109863281
      ],
      [
        "）",
        -6.412694454193115
      ],
      [
        "！",
        -6.415226459503174
      ],
      [
        "▁be",
        -6.418309211730957
      ],
      [
        "}",
        -6.426574230194092
      ],
      [
        "▁you",
        -6.4603166580200195
      ],
      [
        "　",
        -6.496720314025879
      ],
      [
        "▁=",
        -6.519581317901611
      ],
      [
        "▁are",
        -6.520616054534912
      ],
      [
        "▁I",
        -6.551248550415039
      ],
      [
        "▁was",
        -6.5730695724487305
      ],
      [
        "ion",
        -6.596700668334961
      ],
      [
        "▁\"",
        -6.601468563079834
      ],
      [
        "▁by",
        -6.61254358291626
      ],
      [
        "▁at",
        -6.636655330657959
      ],
      [
        ">",
        -6.643035888671875
      ],
      [
        "▁from",
        -6.654207706451416
      ],
      [
        "も",
        -6.656792163848877
      ],
      [
        "▁this",
        -6.667910099029541
      ],
      [
        "や",
        -6.721639156341553
      ],
      [
        "tion",
        -6.729551315307617
      ],
      [
        "e",
        -6.732730388641357
      ],
      [
        "▁or",
        -6.7788238525390625
      ],
      [
        "▁have",
        -6.7848429679870605
      ],
      [
        "\\",
        -6.8263139724731445
      ],
      [
        "a",
        -6.832526683807373
      ],
      [
        "{",
        -6.8401970863342285
      ],
      [
        "▁an",
        -6.875316619873047
      ],
      [
        "I",
        -6.880879878997803
      ],
      [
        "です",
        -6.897726058959961
      ],
      [
        "A",
        -6.90564489364624
      ],
      [
        "ment",
        -6.9068450927734375
      ],
      [
        "▁not",
        -6.90889310836792
      ],
      [
        "：",
        -6.989893913269043
      ],
      [
        "er",
        -6.9917073249816895
      ],
      [
        "es",
        -6.997255325317383
      ],
      [
        "から",
        -7.027682304382324
      ],
      [
        "▁can",
        -7.036434173583984
      ],
      [
        "▁will",
        -7.036806106567383
      ],
      [
        "▁{",
        -7.049181938171387
      ],
      [
        "<",
        -7.0766377449035645
      ],
      [
        "▁has",
        -7.093747615814209
      ],
      [
        "？",
        -7.097305774688721
      ],
      [
        "?",
        -7.104404449462891
      ],
      [
        "ly",
        -7.112066745758057
      ],
      [
        "▁we",
        -7.117401123046875
      ],
      [
        "x",
        -7.127345561981201
      ],
      [
        "月",
        -7.144266128540039
      ],
      [
        "d",
        -7.149792194366455
      ],
      [
        "ation",
        -7.1707539558410645
      ],
      [
        "[",
        -7.179605007171631
      ],
      [
        "▁your",
        -7.180761814117432
      ],
      [
        "al",
        -7.211756229400635
      ],
      [
        "]",
        -7.23567533493042
      ],
      [
        "日",
        -7.241153717041016
      ],
      [
        "m",
        -7.246447563171387
      ],
      [
        "i",
        -7.254825592041016
      ],
      [
        "年",
        -7.269839286804199
      ],
      [
        "▁all",
        -7.277161121368408
      ],
      [
        "▁but",
        -7.282544136047363
      ],
      [
        "▁$",
        -7.294253349304199
      ],
      [
        "S",
        -7.294414520263672
      ],
      [
        "▁his",
        -7.306097984313965
      ],
      [
        "▁he",
        -7.312111854553223
      ],
      [
        "▁their",
        -7.326018810272217
      ],
      [
        "】",
        -7.359097957611084
      ],
      [
        "▁they",
        -7.372232913970947
      ],
      [
        "!",
        -7.372748374938965
      ],
      [
        "▁which",
        -7.380005359649658
      ],
      [
        "▁more",
        -7.382967472076416
      ],
      [
        "▁one",
        -7.396144866943359
      ],
      [
        ");",
        -7.400406837463379
      ],
      [
        "n",
        -7.421166896820068
      ],
      [
        "【",
        -7.422082901000977
      ],
      [
        "し",
        -7.450836658477783
      ],
      [
        "In",
        -7.466225624084473
      ],
      [
        "…",
        -7.473363399505615
      ],
      [
        "▁about",
        -7.513978958129883
      ],
      [
        "=\"",
        -7.521421909332275
      ],
      [
        "#",
        -7.525457382202148
      ],
      [
        "１",
        -7.533309936523437
      ],
      [
        "▁*",
        -7.551897048950195
      ],
      [
        "$",
        -7.563714981079102
      ],
      [
        "▁new",
        -7.566632747650147
      ],
      [
        "It",
        -7.588356018066406
      ],
      [
        "▁out",
        -7.594876766204834
      ],
      [
        "▁our",
        -7.599032402038574
      ],
      [
        "▁if",
        -7.621623039245605
      ],
      [
        "re",
        -7.622539520263672
      ],
      [
        "C",
        -7.626398086547852
      ],
      [
        "▁also",
        -7.62848424911499
      ],
      [
        "▁who",
        -7.630606174468994
      ],
      [
        "c",
        -7.63862943649292
      ],
      [
        "▁A",
        -7.639496326446533
      ],
      [
        "▁so",
        -7.6462554931640625
      ],
      [
        "y",
        -7.652219295501709
      ],
      [
        "▁were",
        -7.656820297241211
      ],
      [
        "▁up",
        -7.663827896118164
      ],
      [
        "▁time",
        -7.671588897705078
      ],
      [
        "▁been",
        -7.673049449920654
      ],
      [
        "ent",
        -7.674957275390625
      ],
      [
        "%",
        -7.676966190338135
      ],
      [
        "=",
        -7.677066802978516
      ],
      [
        "ity",
        -7.679240226745605
      ],
      [
        "p",
        -7.700401782989502
      ],
      [
        "する",
        -7.7013115882873535
      ],
      [
        "in",
        -7.707010269165039
      ],
      [
        "な",
        -7.7123517990112305
      ],
      [
        "▁my",
        -7.71921968460083
      ],
      [
        "This",
        -7.736572742462158
      ],
      [
        "▁other",
        -7.7370805740356445
      ],
      [
        "▁had",
        -7.738875389099121
      ],
      [
        "ers",
        -7.747288703918457
      ],
      [
        "▁do",
        -7.747626781463623
      ],
      [
        "▁\\",
        -7.751336574554443
      ],
      [
        "</",
        -7.752295970916748
      ],
      [
        "▁de",
        -7.772541046142578
      ],
      [
        "com",
        -7.783356189727783
      ],
      [
        "この",
        -7.784897327423096
      ],
      [
        "▁when",
        -7.787724018096924
      ],
      [
        "...",
        -7.80057430267334
      ],
      [
        "▁would",
        -7.810370922088623
      ],
      [
        "▁like",
        -7.816443920135498
      ],
      [
        "▁her",
        -7.816866397857666
      ],
      [
        "２",
        -7.827950477600098
      ],
      [
        "▁there",
        -7.829088687896728
      ],
      [
        "▁re",
        -7.833040714263916
      ],
      [
        "など",
        -7.843267440795898
      ],
      [
        "f",
        -7.846087455749512
      ],
      [
        "した",
        -7.851770401000977
      ],
      [
        "b",
        -7.860446929931641
      ],
      [
        "～",
        -7.8610758781433105
      ],
      [
        "▁some",
        -7.864585399627685
      ],
      [
        "▁&",
        -7.871135234832764
      ],
      [
        "▁its",
        -7.871594429016113
      ],
      [
        "『",
        -7.878161430358887
      ],
      [
        "▁▁▁▁▁▁",
        -7.87969970703125
      ],
      [
        "』",
        -7.881853103637695
      ],
      [
        "D",
        -7.8852081298828125
      ],
      [
        "▁what",
        -7.886144161224365
      ],
      [
        "o",
        -7.887959957122803
      ],
      [
        "では",
        -7.889763832092285
      ],
      [
        "r",
        -7.892458438873291
      ],
      [
        "▁into",
        -7.896343231201172
      ],
      [
        "We",
        -7.901060104370117
      ],
      [
        "には",
        -7.903219223022461
      ],
      [
        "して",
        -7.910018920898437
      ],
      [
        "B",
        -7.912950038909912
      ],
      [
        "://",
        -7.922048091888428
      ],
      [
        ").",
        -7.927211761474609
      ],
      [
        "▁get",
        -7.928006649017334
      ],
      [
        "か",
        -7.928502082824707
      ],
      [
        "という",
        -7.930007457733154
      ],
      [
        "でも",
        -7.934413909912109
      ],
      [
        "T",
        -7.937839508056641
      ],
      [
        "▁over",
        -7.945933818817139
      ],
      [
        "▁than",
        -7.946345806121826
      ],
      [
        "able",
        -7.94728422164917
      ],
      [
        "),",
        -7.947566032409668
      ],
      [
        "if",
        -7.94831657409668
      ],
      [
        "▁–",
        -7.95442533493042
      ],
      [
        "▁C",
        -7.9553680419921875
      ],
      [
        "ます",
        -7.958428382873535
      ],
      [
        "０",
        -7.970466613769531
      ],
      [
        "▁first",
        -7.970818042755127
      ],
      [
        "or",
        -7.977933406829834
      ],
      [
        "▁|",
        -7.978925704956055
      ],
      [
        "▁said",
        -7.982591152191162
      ],
      [
        "\",",
        -7.985403537750244
      ],
      [
        "▁people",
        -7.986231327056885
      ],
      [
        "ions",
        -7.993402481079102
      ],
      [
        "▁them",
        -7.993505001068115
      ],
      [
        "▁no",
        -7.995972633361816
      ],
      [
        "//",
        -7.998015880584717
      ],
      [
        "▁S",
        -8.000794410705566
      ],
      [
        "その",
        -8.0050630569458
      ],
      [
        "▁any",
        -8.019064903259277
      ],
      [
        "▁just",
        -8.021594047546387
      ],
      [
        "▁The",
        -8.022104263305664
      ],
      [
        "g",
        -8.024392127990723
      ],
      [
        "▁[",
        -8.030739784240723
      ],
      [
        "()",
        -8.035467147827148
      ],
      [
        "▁me",
        -8.037323951721191
      ],
      [
        "ので",
        -8.04038143157959
      ],
      [
        "▁only",
        -8.060287475585938
      ],
      [
        "▁class",
        -8.065324783325195
      ],
      [
        "▁under",
        -8.07160472869873
      ],
      [
        "また",
        -8.074138641357422
      ],
      [
        "円",
        -8.092206954956055
      ],
      [
        "h",
        -8.096636772155762
      ],
      [
        "る",
        -8.097709655761719
      ],
      [
        "M",
        -8.09925651550293
      ],
      [
        "return",
        -8.102258682250977
      ],
      [
        "E",
        -8.107451438903809
      ],
      [
        "▁two",
        -8.116140365600586
      ],
      [
        "->",
        -8.119158744812012
      ],
      [
        "k",
        -8.12248706817627
      ],
      [
        "id",
        -8.123589515686035
      ],
      [
        "▁work",
        -8.126501083374023
      ],
      [
        "F",
        -8.130106925964355
      ],
      [
        "P",
        -8.13104248046875
      ],
      [
        "って",
        -8.134439468383789
      ],
      [
        "content",
        -8.138628959655762
      ],
      [
        ".\"",
        -8.140843391418457
      ],
      [
        "ence",
        -8.1422119140625
      ],
      [
        "▁how",
        -8.158035278320312
      ],
      [
        "として",
        -8.158223152160645
      ],
      [
        "+",
        -8.15868854522705
      ],
      [
        "▁▁▁▁▁▁▁",
        -8.158891677856445
      ],
      [
        "ウェブ",
        -8.163416862487793
      ],
      [
        "*",
        -8.169539451599121
      ],
      [
        "▁through",
        -8.172860145568848
      ],
      [
        "▁p",
        -8.17851734161377
      ],
      [
        "▁may",
        -8.180180549621582
      ],
      [
        "ive",
        -8.181297302246094
      ],
      [
        "▁use",
        -8.186582565307617
      ],
      [
        "▁part",
        -8.189270973205566
      ],
      [
        "tions",
        -8.191076278686523
      ],
      [
        "He",
        -8.191492080688477
      ],
      [
        "▁most",
        -8.205827713012695
      ],
      [
        "本文",
        -8.207916259765625
      ],
      [
        "th",
        -8.210655212402344
      ],
      [
        "▁she",
        -8.216859817504883
      ],
      [
        "▁these",
        -8.219682693481445
      ],
      [
        "',",
        -8.220653533935547
      ],
      [
        "▁i",
        -8.2229585647583
      ],
      [
        "Web",
        -8.225170135498047
      ],
      [
        "::",
        -8.226598739624023
      ],
      [
        "to",
        -8.229284286499023
      ],
      [
        "▁make",
        -8.23085880279541
      ],
      [
        "L",
        -8.232475280761719
      ],
      [
        "▁after",
        -8.24262523651123
      ],
      [
        "▁P",
        -8.243406295776367
      ],
      [
        "R",
        -8.255093574523926
      ],
      [
        "▁years",
        -8.259782791137695
      ],
      [
        "▁ID",
        -8.260770797729492
      ],
      [
        "▁well",
        -8.262665748596191
      ],
      [
        "３",
        -8.263744354248047
      ],
      [
        "▁c",
        -8.264779090881348
      ],
      [
        "(\"",
        -8.279151916503906
      ],
      [
        "▁M",
        -8.284743309020996
      ],
      [
        "人",
        -8.286602973937988
      ],
      [
        "get",
        -8.295424461364746
      ],
      [
        ",\"",
        -8.297019004821777
      ],
      [
        "▁#",
        -8.299367904663086
      ],
      [
        "▁know",
        -8.304608345031738
      ],
      [
        "|",
        -8.311871528625488
      ],
      [
        "て",
        -8.313041687011719
      ],
      [
        "▁where",
        -8.315662384033203
      ],
      [
        "▁back",
        -8.316662788391113
      ],
      [
        "v",
        -8.320704460144043
      ],
      [
        "た",
        -8.326401710510254
      ],
      [
        "If",
        -8.327998161315918
      ],
      [
        "▁such",
        -8.328686714172363
      ],
      [
        "function",
        -8.330809593200684
      ],
      [
        "▁then",
        -8.336359977722168
      ],
      [
        "▁<",
        -8.338118553161621
      ],
      [
        "さん",
        -8.339581489562988
      ],
      [
        "@",
        -8.339943885803223
      ],
      [
        "▁could",
        -8.342884063720703
      ],
      [
        "▁many",
        -8.350951194763184
      ],
      [
        "まで",
        -8.372371673583984
      ],
      [
        "▁year",
        -8.372624397277832
      ],
      [
        "▁way",
        -8.372663497924805
      ],
      [
        "▁very",
        -8.373316764831543
      ],
      [
        "▁should",
        -8.37573528289795
      ],
      [
        "on",
        -8.385475158691406
      ],
      [
        "▁now",
        -8.386436462402344
      ],
      [
        "▁+",
        -8.387557983398438
      ],
      [
        "&",
        -8.389623641967773
      ],
      [
        "G",
        -8.391339302062988
      ],
      [
        "N",
        -8.391860961914062
      ],
      [
        "分",
        -8.392727851867676
      ],
      [
        "、「",
        -8.393805503845215
      ],
      [
        "ally",
        -8.39795207977295
      ],
      [
        "▁us",
        -8.410148620605469
      ],
      [
        "\">",
        -8.410948753356934
      ],
      [
        "，",
        -8.421311378479004
      ],
      [
        "ve",
        -8.421969413757324
      ],
      [
        "について",
        -8.422168731689453
      ],
      [
        "▁even",
        -8.426064491271973
      ],
      [
        "l",
        -8.437870979309082
      ],
      [
        "”",
        -8.439676284790039
      ],
      [
        "en",
        -8.441286087036133
      ],
      [
        "u",
        -8.442747116088867
      ],
      [
        "▁data",
        -8.444351196289062
      ],
      [
        "▁because",
        -8.448744773864746
      ],
      [
        "ance",
        -8.455168724060059
      ],
      [
        "第",
        -8.45849323272705
      ],
      [
        "▁need",
        -8.45942497253418
      ],
      [
        "▁differ",
        -8.46425724029541
      ],
      [
        "K",
        -8.465729713439941
      ],
      [
        "▁see",
        -8.466217041015625
      ],
      [
        "ments",
        -8.466547966003418
      ],
      [
        "();",
        -8.467377662658691
      ],
      [
        "ました",
        -8.471470832824707
      ],
      [
        "▁B",
        -8.472678184509277
      ],
      [
        "You",
        -8.474198341369629
      ],
      [
        "But",
        -8.481992721557617
      ],
      [
        "します",
        -8.485240936279297
      ],
      [
        "import",
        -8.485267639160156
      ],
      [
        "ations",
        -8.486024856567383
      ],
      [
        "▁E",
        -8.488164901733398
      ],
      [
        "H",
        -8.504974365234375
      ],
      [
        "name",
        -8.50961971282959
      ],
      [
        "For",
        -8.510310173034668
      ],
      [
        "より",
        -8.515506744384766
      ],
      [
        "▁being",
        -8.521470069885254
      ],
      [
        "▁world",
        -8.526026725769043
      ],
      [
        "And",
        -8.52890682220459
      ],
      [
        "this",
        -8.529847145080566
      ],
      [
        "('",
        -8.535920143127441
      ],
      [
        "X",
        -8.538009643554688
      ],
      [
        "大",
        -8.53976821899414
      ],
      [
        "へ",
        -8.540900230407715
      ],
      [
        "▁much",
        -8.540915489196777
      ],
      [
        "▁him",
        -8.541139602661133
      ],
      [
        "▁used",
        -8.544407844543457
      ],
      [
        "te",
        -8.550952911376953
      ],
      [
        "▁those",
        -8.559098243713379
      ],
      [
        "▁made",
        -8.560465812683105
      ],
      [
        "お",
        -8.560465812683105
      ],
      [
        "▁develop",
        -8.561119079589844
      ],
      [
        "ional",
        -8.564543724060059
      ],
      [
        "▁before",
        -8.568949699401855
      ],
      [
        "▁good",
        -8.571746826171875
      ],
      [
        "▁set",
        -8.5735502243042
      ],
      [
        "▁@",
        -8.58072280883789
      ],
      [
        "is",
        -8.581658363342285
      ],
      [
        "end",
        -8.582632064819336
      ],
      [
        "▁e",
        -8.583778381347656
      ],
      [
        "▁support",
        -8.584239959716797
      ],
      [
        "j",
        -8.587081909179688
      ],
      [
        "div",
        -8.5904541015625
      ],
      [
        "public",
        -8.595443725585938
      ],
      [
        "ね",
        -8.603043556213379
      ],
      [
        "▁between",
        -8.603111267089844
      ],
      [
        "▁T",
        -8.605667114257812
      ],
      [
        "▁state",
        -8.613723754882812
      ],
      [
        "▁here",
        -8.614232063293457
      ],
      [
        "the",
        -8.61599349975586
      ],
      [
        "z",
        -8.616230964660645
      ],
      [
        "ですが",
        -8.623083114624023
      ],
      [
        "w",
        -8.624916076660156
      ],
      [
        "だ",
        -8.628569602966309
      ],
      [
        "〜",
        -8.629810333251953
      ],
      [
        "As",
        -8.634088516235352
      ],
      [
        "／",
        -8.635991096496582
      ],
      [
        "なら",
        -8.639687538146973
      ],
      [
        "—",
        -8.640302658081055
      ],
      [
        "▁don",
        -8.641206741333008
      ],
      [
        "そして",
        -8.641321182250977
      ],
      [
        "▁life",
        -8.64471435546875
      ],
      [
        "▁experi",
        -8.645458221435547
      ],
      [
        "https",
        -8.649887084960938
      ],
      [
        "▁take",
        -8.651857376098633
      ],
      [
        "▁each",
        -8.652107238769531
      ],
      [
        "よ",
        -8.652756690979004
      ],
      [
        "とか",
        -8.652826309204102
      ],
      [
        "である",
        -8.653801918029785
      ],
      [
        "本",
        -8.654581069946289
      ],
      [
        "V",
        -8.654877662658691
      ],
      [
        "▁want",
        -8.655145645141602
      ],
      [
        "中",
        -8.657304763793945
      ],
      [
        "▁help",
        -8.659687995910645
      ],
      [
        "時",
        -8.660341262817383
      ],
      [
        "▁name",
        -8.660717964172363
      ],
      [
        "▁New",
        -8.662528038024902
      ],
      [
        "▁think",
        -8.663138389587402
      ],
      [
        "ll",
        -8.663518905639648
      ],
      [
        "▁last",
        -8.671018600463867
      ],
      [
        "ities",
        -8.674246788024902
      ],
      [
        "水",
        -8.675500869750977
      ],
      [
        "▁while",
        -8.67574405670166
      ],
      [
        "There",
        -8.676162719726562
      ],
      [
        "▁right",
        -8.679859161376953
      ],
      [
        "▁same",
        -8.68111515045166
      ],
      [
        "にも",
        -8.689140319824219
      ],
      [
        "５",
        -8.689641952514648
      ],
      [
        "▁day",
        -8.69029426574707
      ],
      [
        "W",
        -8.691091537475586
      ],
      [
        "business",
        -8.695625305175781
      ],
      [
        "▁best",
        -8.700372695922852
      ],
      [
        "national",
        -8.700471878051758
      ],
      [
        "▁high",
        -8.71045970916748
      ],
      [
        "To",
        -8.715880393981934
      ],
      [
        "Q",
        -8.715896606445312
      ],
      [
        "▁=>",
        -8.718855857849121
      ],
      [
        "`",
        -8.722728729248047
      ],
      [
        "ies",
        -8.722908973693848
      ],
      [
        "and",
        -8.729649543762207
      ],
      [
        "なので",
        -8.729830741882324
      ],
      [
        "※",
        -8.729996681213379
      ],
      [
        "▁con",
        -8.733746528625488
      ],
      [
        "▁both",
        -8.73417854309082
      ],
      [
        "▁co",
        -8.735300064086914
      ],
      [
        "４",
        -8.739160537719727
      ],
      [
        "▁informa",
        -8.740352630615234
      ],
      [
        "▁go",
        -8.740769386291504
      ],
      [
        "\":",
        -8.74178695678711
      ],
      [
        "▁commun",
        -8.743971824645996
      ],
      [
        "--------",
        -8.751766204833984
      ],
      [
        "とは",
        -8.752019882202148
      ],
      [
        "▁number",
        -8.753368377685547
      ],
      [
        "▁un",
        -8.754977226257324
      ],
      [
        "▁long",
        -8.755756378173828
      ],
      [
        "している",
        -8.75650691986084
      ],
      [
        "ー",
        -8.764176368713379
      ],
      [
        "・・・",
        -8.764906883239746
      ],
      [
        "co",
        -8.767184257507324
      ],
      [
        "They",
        -8.767993927001953
      ],
      [
        "ary",
        -8.769193649291992
      ],
      [
        "▁still",
        -8.772275924682617
      ],
      [
        "▁using",
        -8.775476455688477
      ],
      [
        "data",
        -8.776993751525879
      ],
      [
        "回",
        -8.777807235717773
      ],
      [
        "ate",
        -8.778806686401367
      ],
      [
        "▁home",
        -8.781888008117676
      ],
      [
        "self",
        -8.784573554992676
      ],
      [
        "▁D",
        -8.784905433654785
      ],
      [
        "▁process",
        -8.788714408874512
      ],
      [
        "▁down",
        -8.789047241210938
      ],
      [
        "▁own",
        -8.794000625610352
      ],
      [
        "こと",
        -8.79421615600586
      ],
      [
        "J",
        -8.796355247497559
      ],
      [
        "でした",
        -8.79875659942627
      ],
      [
        "cluding",
        -8.798803329467773
      ],
      [
        "のは",
        -8.799434661865234
      ],
      [
        "▁around",
        -8.801191329956055
      ],
      [
        "▁find",
        -8.80125617980957
      ],
      [
        "り",
        -8.804572105407715
      ],
      [
        "▁public",
        -8.81206226348877
      ],
      [
        "▁L",
        -8.812363624572754
      ],
      [
        "▁three",
        -8.813117980957031
      ],
      [
        "×",
        -8.819408416748047
      ],
      [
        "▁great",
        -8.819830894470215
      ],
      [
        "▁U",
        -8.821773529052734
      ],
      [
        "▁every",
        -8.825634956359863
      ],
      [
        "▁found",
        -8.826687812805176
      ],
      [
        "▁R",
        -8.827126502990723
      ],
      [
        "▁follow",
        -8.830777168273926
      ],
      [
        "set",
        -8.831171035766602
      ],
      [
        "時間",
        -8.83336067199707
      ],
      [
        "▁G",
        -8.83358383178711
      ],
      [
        "Y",
        -8.833635330200195
      ],
      [
        "int",
        -8.837540626525879
      ],
      [
        "▁really",
        -8.838102340698242
      ],
      [
        "▁during",
        -8.83854866027832
      ],
      [
        "▁system",
        -8.841054916381836
      ],
      [
        "^",
        -8.841713905334473
      ],
      [
        "O",
        -8.849781036376953
      ],
      [
        "金",
        -8.852985382080078
      ],
      [
        "▁H",
        -8.854879379272461
      ],
      [
        "ology",
        -8.857891082763672
      ],
      [
        "▁did",
        -8.859436988830566
      ],
      [
        "▁$\\",
        -8.86154556274414
      ],
      [
        "li",
        -8.862992286682129
      ],
      [
        "用",
        -8.865954399108887
      ],
      [
        "▁place",
        -8.868453979492188
      ],
      [
        "▁off",
        -8.871971130371094
      ],
      [
        "▁end",
        -8.874921798706055
      ],
      [
        "U",
        -8.877616882324219
      ],
      [
        "www",
        -8.877983093261719
      ],
      [
        "▁going",
        -8.880085945129395
      ],
      [
        "Name",
        -8.881336212158203
      ],
      [
        "一",
        -8.882789611816406
      ],
      [
        "▁F",
        -8.884017944335938
      ],
      [
        "_{",
        -8.891457557678223
      ],
      [
        "var",
        -8.892510414123535
      ],
      [
        "▁value",
        -8.897234916687012
      ],
      [
        "しました",
        -8.89751148223877
      ],
      [
        "♪",
        -8.90095043182373
      ],
      [
        "ス",
        -8.903904914855957
      ],
      [
        "▁per",
        -8.906610488891602
      ],
      [
        "So",
        -8.909947395324707
      ],
      [
        "She",
        -8.91176700592041
      ],
      [
        "an",
        -8.922643661499023
      ],
      [
        "What",
        -8.92654037475586
      ],
      [
        "▁`",
        -8.928535461425781
      ],
      [
        "ship",
        -8.929603576660156
      ],
      [
        "▁In",
        -8.932233810424805
      ],
      [
        "▁d",
        -8.934237480163574
      ],
      [
        "▁*/",
        -8.935059547424316
      ],
      [
        "out",
        -8.938838005065918
      ],
      [
        "▁does",
        -8.9395112991333
      ],
      [
        "い",
        -8.942440032958984
      ],
      [
        "▁case",
        -8.943143844604492
      ],
      [
        "type",
        -8.94693374633789
      ],
      [
        "▁must",
        -8.94744873046875
      ],
      [
        "▁Univers",
        -8.95042896270752
      ],
      [
        "▁current",
        -8.95509147644043
      ],
      [
        "cm",
        -8.95905876159668
      ],
      [
        "▁perform",
        -8.960251808166504
      ],
      [
        "vailable",
        -8.963627815246582
      ],
      [
        "ID",
        -8.966259002685547
      ],
      [
        "ら",
        -8.966329574584961
      ],
      [
        "できる",
        -8.969653129577637
      ],
      [
        "しかし",
        -8.971632957458496
      ],
      [
        "された",
        -8.974666595458984
      ],
      [
        "木",
        -8.981846809387207
      ],
      [
        "日本",
        -8.98302173614502
      ],
      [
        "▁product",
        -8.991250991821289
      ],
      [
        "▁service",
        -8.99327278137207
      ],
      [
        "▁J",
        -8.994486808776855
      ],
      [
        "man",
        -8.995987892150879
      ],
      [
        "などの",
        -8.997212409973145
      ],
      [
        "による",
        -8.999969482421875
      ],
      [
        "When",
        -9.001151084899902
      ],
      [
        "▁govern",
        -9.002593040466309
      ],
      [
        "しています",
        -9.002878189086914
      ],
      [
        "▁team",
        -9.003512382507324
      ],
      [
        "▁too",
        -9.006272315979004
      ],
      [
        "▁am",
        -9.007651329040527
      ],
      [
        "ない",
        -9.008386611938477
      ],
      [
        "American",
        -9.009714126586914
      ],
      [
        "▁without",
        -9.012981414794922
      ],
      [
        "–",
        -9.012982368469238
      ],
      [
        "mm",
        -9.013174057006836
      ],
      [
        "▁since",
        -9.016071319580078
      ],
      [
        "ton",
        -9.01773452758789
      ],
      [
        "▁N",
        -9.01888942718506
      ],
      [
        "市",
        -9.019280433654783
      ],
      [
        "):",
        -9.01941967010498
      ],
      [
        "▁game",
        -9.02090549468994
      ],
      [
        "▁next",
        -9.0230712890625
      ],
      [
        "への",
        -9.025553703308104
      ],
      [
        "position",
        -9.026257514953612
      ],
      [
        "▁company",
        -9.028975486755373
      ],
      [
        "▁against",
        -9.029390335083008
      ],
      [
        "td",
        -9.03427505493164
      ],
      [
        "▁K",
        -9.035197257995604
      ],
      [
        "名",
        -9.03850555419922
      ],
      [
        "等",
        -9.039129257202148
      ],
      [
        "net",
        -9.041049003601074
      ],
      [
        "▁inter",
        -9.04117202758789
      ],
      [
        "▁—",
        -9.046107292175291
      ],
      [
        "▁look",
        -9.046235084533691
      ],
      [
        "▁W",
        -9.046363830566406
      ],
      [
        "情報",
        -9.047027587890623
      ],
      [
        "consider",
        -9.04707145690918
      ],
      [
        "▁another",
        -9.047231674194336
      ],
      [
        "▁==",
        -9.047622680664062
      ],
      [
        "question",
        -9.050814628601074
      ],
      [
        "Type",
        -9.051751136779783
      ],
      [
        "▁come",
        -9.055950164794922
      ],
      [
        "▁few",
        -9.06337547302246
      ],
      [
        "▁second",
        -9.063724517822266
      ],
      [
        "▁provide",
        -9.066302299499512
      ],
      [
        "span",
        -9.071496963500977
      ],
      [
        "ですね",
        -9.07181167602539
      ],
      [
        "That",
        -9.076010704040527
      ],
      [
        "▁family",
        -9.076072692871094
      ],
      [
        "▁things",
        -9.078795433044434
      ],
      [
        "▁show",
        -9.07913589477539
      ],
      [
        "新",
        -9.08009433746338
      ],
      [
        "＆",
        -9.08170223236084
      ],
      [
        "▁f",
        -9.08213996887207
      ],
      [
        "もの",
        -9.087237358093262
      ],
      [
        "▁project",
        -9.087430953979492
      ],
      [
        "▁techn",
        -9.087760925292969
      ],
      [
        "ant",
        -9.088205337524414
      ],
      [
        "▁true",
        -9.088541030883787
      ],
      [
        "▁program",
        -9.0888032913208
      ],
      [
        "ist",
        -9.090147018432615
      ],
      [
        "▁la",
        -9.09228801727295
      ],
      [
        "．",
        -9.09512996673584
      ],
      [
        "▁present",
        -9.098094940185549
      ],
      [
        "的",
        -9.099478721618652
      ],
      [
        "だった",
        -9.099947929382324
      ],
      [
        "笑",
        -9.102265357971191
      ],
      [
        "上",
        -9.10367202758789
      ],
      [
        "▁type",
        -9.104032516479492
      ],
      [
        "▁say",
        -9.105095863342283
      ],
      [
        "resident",
        -9.106417655944824
      ],
      [
        "research",
        -9.110539436340332
      ],
      [
        "text",
        -9.113821983337402
      ],
      [
        "q",
        -9.115519523620604
      ],
      [
        "▁always",
        -9.116045951843262
      ],
      [
        "Z",
        -9.116262435913086
      ],
      [
        "ian",
        -9.117319107055664
      ],
      [
        "▁order",
        -9.11754322052002
      ],
      [
        "▁better",
        -9.117635726928713
      ],
      [
        "▁someth",
        -9.120404243469238
      ],
      [
        "ated",
        -9.120676040649414
      ],
      [
        "On",
        -9.123319625854492
      ],
      [
        "▁change",
        -9.123589515686035
      ],
      [
        "interest",
        -9.123910903930664
      ],
      [
        "No",
        -9.125188827514648
      ],
      [
        "▁Re",
        -9.126008987426758
      ],
      [
        "String",
        -9.130009651184082
      ],
      [
        "店",
        -9.1361083984375
      ],
      [
        "▁trans",
        -9.13615894317627
      ],
      [
        "issue",
        -9.136502265930176
      ],
      [
        "org",
        -9.142193794250488
      ],
      [
        "▁free",
        -9.143136024475098
      ],
      [
        "▁return",
        -9.143438339233398
      ],
      [
        "With",
        -9.144556045532228
      ],
      [
        "▁little",
        -9.147464752197266
      ],
      [
        "子",
        -9.14918041229248
      ],
      [
        "約",
        -9.14938735961914
      ],
      [
        "▁market",
        -9.150056838989258
      ],
      [
        "山",
        -9.15015697479248
      ],
      [
        "],",
        -9.151378631591797
      ],
      [
        "http",
        -9.152543067932127
      ],
      [
        "By",
        -9.153347969055176
      ],
      [
        "６",
        -9.154685974121094
      ],
      [
        "▁result",
        -9.159141540527344
      ],
      [
        "▁local",
        -9.15977382659912
      ],
      [
        "私は",
        -9.160545349121094
      ],
      [
        "at",
        -9.160711288452148
      ],
      [
        "▁never",
        -9.161615371704102
      ],
      [
        "▁love",
        -9.162893295288086
      ],
      [
        "話",
        -9.163779258728027
      ],
      [
        "“",
        -9.16383171081543
      ],
      [
        "▁might",
        -9.164167404174805
      ],
      [
        "▁point",
        -9.165399551391602
      ],
      [
        "▁within",
        -9.165884017944336
      ],
      [
        "▁lot",
        -9.166463851928713
      ],
      [
        "All",
        -9.167255401611328
      ],
      [
        "children",
        -9.17392921447754
      ],
      [
        "になる",
        -9.175331115722656
      ],
      [
        "と思います",
        -9.17554759979248
      ],
      [
        "☆",
        -9.178878784179688
      ],
      [
        "><",
        -9.17921543121338
      ],
      [
        "▁start",
        -9.179631233215332
      ],
      [
        "▁group",
        -9.18035125732422
      ],
      [
        "▁self",
        -9.180863380432127
      ],
      [
        "))",
        -9.183293342590332
      ],
      [
        "▁water",
        -9.18355655670166
      ],
      [
        "土",
        -9.187047004699709
      ],
      [
        "がある",
        -9.19593334197998
      ],
      [
        "},",
        -9.200262069702148
      ],
      [
        "」「",
        -9.203948974609377
      ],
      [
        "▁access",
        -9.205406188964844
      ],
      [
        "\")",
        -9.20540714263916
      ],
      [
        "▁dis",
        -9.207245826721191
      ],
      [
        "▁school",
        -9.207865715026855
      ],
      [
        "username",
        -9.208290100097656
      ],
      [
        "のか",
        -9.208317756652832
      ],
      [
        "▁person",
        -9.20910358428955
      ],
      [
        "▁says",
        -9.212172508239746
      ],
      [
        "▁full",
        -9.213068008422852
      ],
      [
        "px",
        -9.21392059326172
      ],
      [
        "Data",
        -9.215646743774414
      ],
      [
        "町",
        -9.216737747192385
      ],
      [
        "{\\",
        -9.21734619140625
      ],
      [
        "ful",
        -9.219454765319824
      ],
      [
        "▁top",
        -9.220833778381348
      ],
      [
        "▁million",
        -9.221158027648926
      ],
      [
        "これは",
        -9.221205711364746
      ],
      [
        "▁health",
        -9.222907066345217
      ],
      [
        "▁book",
        -9.225382804870604
      ],
      [
        "for",
        -9.225550651550291
      ],
      [
        "今",
        -9.225945472717283
      ],
      [
        "▁non",
        -9.229081153869627
      ],
      [
        "no",
        -9.22922420501709
      ],
      [
        "ため",
        -9.230795860290527
      ],
      [
        "▁working",
        -9.233602523803713
      ],
      [
        "class",
        -9.23549747467041
      ],
      [
        "of",
        -9.235736846923828
      ],
      [
        "html",
        -9.237042427062988
      ],
      [
        "▁m",
        -9.23771858215332
      ],
      [
        "だけ",
        -9.24024772644043
      ],
      [
        "XXXX",
        -9.24034595489502
      ],
      [
        "＠",
        -9.24066925048828
      ],
      [
        "▁small",
        -9.241308212280272
      ],
      [
        "possible",
        -9.241986274719238
      ],
      [
        "▁design",
        -9.242921829223633
      ],
      [
        "方",
        -9.246891975402832
      ],
      [
        "const",
        -9.247713088989258
      ],
      [
        "●",
        -9.249489784240724
      ],
      [
        "つ",
        -9.250423431396484
      ],
      [
        "▁example",
        -9.251883506774902
      ],
      [
        "▁else",
        -9.254236221313477
      ],
      [
        "▁success",
        -9.256247520446776
      ],
      [
        "％",
        -9.258758544921877
      ],
      [
        "it",
        -9.262670516967772
      ],
      [
        "けど",
        -9.263344764709473
      ],
      [
        "▁file",
        -9.263781547546388
      ],
      [
        "▁line",
        -9.269891738891602
      ],
      [
        "Id",
        -9.27078342437744
      ],
      [
        "At",
        -9.270854949951172
      ],
      [
        "によって",
        -9.271477699279783
      ],
      [
        "▁got",
        -9.27195644378662
      ],
      [
        "▁power",
        -9.272378921508787
      ],
      [
        "us",
        -9.2734375
      ],
      [
        "document",
        -9.273591995239258
      ],
      [
        "■",
        -9.27601718902588
      ],
      [
        "▁country",
        -9.276026725769045
      ],
      [
        "de",
        -9.276653289794922
      ],
      [
        "７",
        -9.277460098266602
      ],
      [
        "前",
        -9.277490615844728
      ],
      [
        "駅",
        -9.278300285339355
      ],
      [
        "自分の",
        -9.278857231140137
      ],
      [
        "solution",
        -9.279600143432615
      ],
      [
        "code",
        -9.281455993652344
      ],
      [
        "そんな",
        -9.283313751220703
      ],
      [
        "ア",
        -9.284696578979492
      ],
      [
        "as",
        -9.28729248046875
      ],
      [
        "▁charact",
        -9.290201187133787
      ],
      [
        "▁days",
        -9.29023265838623
      ],
      [
        "される",
        -9.29121208190918
      ],
      [
        "さ",
        -9.291918754577637
      ],
      [
        "▁list",
        -9.29570484161377
      ],
      [
        "▁connect",
        -9.295705795288086
      ],
      [
        "ある",
        -9.29627799987793
      ],
      [
        "▁effect",
        -9.29649829864502
      ],
      [
        "★",
        -9.29655933380127
      ],
      [
        "▁require",
        -9.29712963104248
      ],
      [
        "▁test",
        -9.299141883850098
      ],
      [
        "['",
        -9.299200057983398
      ],
      [
        "もう",
        -9.301191329956056
      ],
      [
        "▁area",
        -9.302666664123535
      ],
      [
        "▁again",
        -9.30349349975586
      ],
      [
        "▁include",
        -9.303899765014648
      ],
      [
        "８",
        -9.30583381652832
      ],
      [
        "label",
        -9.307814598083496
      ],
      [
        "サービス",
        -9.308805465698242
      ],
      [
        "火",
        -9.30965518951416
      ],
      [
        "string",
        -9.310598373413086
      ],
      [
        "だから",
        -9.31078052520752
      ],
      [
        "new",
        -9.311938285827637
      ],
      [
        "▁real",
        -9.314290046691896
      ],
      [
        "\");",
        -9.314435958862305
      ],
      [
        "right",
        -9.316153526306152
      ],
      [
        "ください",
        -9.31660270690918
      ],
      [
        "があります",
        -9.319610595703123
      ],
      [
        "by",
        -9.320137977600098
      ],
      [
        "▁give",
        -9.32048511505127
      ],
      [
        "ように",
        -9.320633888244627
      ],
      [
        "小",
        -9.320850372314451
      ],
      [
        "▁form",
        -9.32209587097168
      ],
      [
        "く",
        -9.322871208190918
      ],
      [
        "位",
        -9.324623107910156
      ],
      [
        "size",
        -9.325090408325195
      ],
      [
        "→",
        -9.325482368469238
      ],
      [
        "▁en",
        -9.326507568359377
      ],
      [
        "▁play",
        -9.326593399047852
      ],
      [
        "▁special",
        -9.32664966583252
      ],
      [
        "le",
        -9.327899932861328
      ],
      [
        "▁create",
        -9.329318046569824
      ],
      [
        "▁story",
        -9.33193588256836
      ],
      [
        "▁control",
        -9.335246086120604
      ],
      [
        "▁open",
        -9.335442543029783
      ],
      [
        "型",
        -9.336689949035645
      ],
      [
        "▁--",
        -9.338400840759276
      ],
      [
        "begin",
        -9.339272499084473
      ],
      [
        "▁put",
        -9.34148406982422
      ],
      [
        "}\\",
        -9.34255027770996
      ],
      [
        "▁left",
        -9.342668533325195
      ],
      [
        "complete",
        -9.342928886413574
      ],
      [
        "東京",
        -9.345802307128906
      ],
      [
        "up",
        -9.346006393432615
      ],
      [
        "▁sure",
        -9.347766876220703
      ],
      [
        "time",
        -9.34835720062256
      ],
      [
        "だと",
        -9.348947525024414
      ],
      [
        "ference",
        -9.349286079406738
      ],
      [
        "ability",
        -9.353376388549805
      ],
      [
        "▁O",
        -9.35414981842041
      ],
      [
        "▁collect",
        -9.354175567626951
      ],
      [
        "test",
        -9.355111122131348
      ],
      [
        "ous",
        -9.356024742126465
      ],
      [
        "▁pre",
        -9.357458114624023
      ],
      [
        "今回は",
        -9.358304977416992
      ],
      [
        "mportant",
        -9.360179901123049
      ],
      [
        "io",
        -9.361029624938965
      ],
      [
        "▁making",
        -9.361239433288574
      ],
      [
        "▁week",
        -9.361767768859863
      ],
      [
        "▁called",
        -9.362311363220217
      ],
      [
        "▁United",
        -9.363303184509276
      ],
      [
        "List",
        -9.363729476928713
      ],
      [
        "▁b",
        -9.36446762084961
      ],
      [
        "line",
        -9.364768981933594
      ],
      [
        "students",
        -9.366785049438477
      ],
      [
        "▁post",
        -9.368863105773926
      ],
      [
        "｜",
        -9.368974685668944
      ],
      [
        "▁today",
        -9.369688034057615
      ],
      [
        "▁given",
        -9.369970321655272
      ],
      [
        "▁v",
        -9.369972229003906
      ],
      [
        "者",
        -9.37032413482666
      ],
      [
        "specific",
        -9.37085247039795
      ],
      [
        "のが",
        -9.371692657470703
      ],
      [
        "▁problem",
        -9.37205696105957
      ],
      [
        "These",
        -9.372800827026367
      ],
      [
        "dividual",
        -9.3734769821167
      ],
      [
        "高",
        -9.373915672302246
      ],
      [
        "▁based",
        -9.378206253051758
      ],
      [
        "数",
        -9.37834644317627
      ],
      [
        "However",
        -9.37939453125
      ],
      [
        "▁man",
        -9.379698753356934
      ],
      [
        "together",
        -9.38023853302002
      ],
      [
        "▁run",
        -9.386794090270996
      ],
      [
        "($",
        -9.387651443481444
      ],
      [
        "▁final",
        -9.389437675476074
      ],
      [
        "▁why",
        -9.389459609985352
      ],
      [
        "services",
        -9.394209861755373
      ],
      [
        "**",
        -9.394264221191406
      ],
      [
        "９",
        -9.394498825073242
      ],
      [
        "▁social",
        -9.394858360290527
      ],
      [
        "▁four",
        -9.395301818847656
      ],
      [
        "下",
        -9.395882606506348
      ],
      [
        "▁read",
        -9.395950317382812
      ],
      [
        "そう",
        -9.396541595458984
      ],
      [
        "にて",
        -9.397008895874023
      ],
      [
        "def",
        -9.397822380065918
      ],
      [
        "サイズ",
        -9.39831256866455
      ],
      [
        "になります",
        -9.398493766784668
      ],
      [
        "ref",
        -9.399131774902344
      ],
      [
        "▁until",
        -9.399353981018066
      ],
      [
        "セット",
        -9.401615142822266
      ],
      [
        "comment",
        -9.40264892578125
      ],
      [
        "▁report",
        -9.403411865234377
      ],
      [
        "＞",
        -9.404006958007812
      ],
      [
        "▁already",
        -9.40557861328125
      ],
      [
        "手",
        -9.405580520629885
      ],
      [
        "One",
        -9.406367301940918
      ],
      [
        "ized",
        -9.406956672668455
      ],
      [
        "▁away",
        -9.40982723236084
      ],
      [
        "▁course",
        -9.410229682922363
      ],
      [
        "す",
        -9.41093921661377
      ],
      [
        "value",
        -9.41146183013916
      ],
      [
        "株式会社",
        -9.411556243896484
      ],
      [
        "After",
        -9.412257194519045
      ],
      [
        "▁care",
        -9.413311004638672
      ],
      [
        "National",
        -9.414780616760254
      ],
      [
        "さらに",
        -9.41500186920166
      ],
      [
        "性",
        -9.416083335876465
      ],
      [
        "▁keep",
        -9.416539192199709
      ],
      [
        "▁import",
        -9.418127059936523
      ],
      [
        "名無しさん",
        -9.41936206817627
      ],
      [
        "ン",
        -9.420592308044434
      ],
      [
        "▁model",
        -9.422196388244627
      ],
      [
        "！」",
        -9.42291259765625
      ],
      [
        "後",
        -9.424339294433594
      ],
      [
        "▁State",
        -9.42605209350586
      ],
      [
        "▁large",
        -9.426186561584473
      ],
      [
        "▁protect",
        -9.426316261291504
      ],
      [
        "▁general",
        -9.427438735961914
      ],
      [
        "ic",
        -9.4292631149292
      ],
      [
        "building",
        -9.429510116577148
      ],
      [
        "▁music",
        -9.429622650146484
      ],
      [
        "How",
        -9.430597305297852
      ],
      [
        "list",
        -9.43146514892578
      ],
      [
        "三",
        -9.431708335876465
      ],
      [
        "st",
        -9.431760787963867
      ],
      [
        "化",
        -9.43373680114746
      ],
      [
        "My",
        -9.433916091918944
      ],
      [
        "特に",
        -9.43402099609375
      ],
      [
        "▁having",
        -9.435958862304688
      ],
      [
        "商品",
        -9.436237335205078
      ],
      [
        "▁across",
        -9.436312675476074
      ],
      [
        "ch",
        -9.436575889587402
      ],
      [
        "add",
        -9.43699836730957
      ],
      [
        "▁condi",
        -9.437111854553224
      ],
      [
        "ド",
        -9.44041347503662
      ],
      [
        "▁old",
        -9.441120147705078
      ],
      [
        "▁become",
        -9.441885948181152
      ],
      [
        "▁null",
        -9.444034576416016
      ],
      [
        "ている",
        -9.445904731750488
      ],
      [
        "対応",
        -9.447959899902344
      ],
      [
        "▁event",
        -9.449175834655762
      ],
      [
        "▁profess",
        -9.451519012451172
      ],
      [
        "▁future",
        -9.451637268066406
      ],
      [
        "事",
        -9.45169162750244
      ],
      [
        "▁thought",
        -9.451696395874023
      ],
      [
        "ご",
        -9.451910972595217
      ],
      [
        "▁organiz",
        -9.452037811279297
      ],
      [
        "▁thing",
        -9.453705787658691
      ],
      [
        "▁level",
        -9.45387077331543
      ],
      [
        "ただ",
        -9.454052925109863
      ],
      [
        "▁women",
        -9.454221725463867
      ],
      [
        "▁operat",
        -9.454965591430664
      ],
      [
        "response",
        -9.455404281616213
      ],
      [
        "mental",
        -9.45575714111328
      ],
      [
        "色",
        -9.45682430267334
      ],
      [
        "き",
        -9.457921028137209
      ],
      [
        "/**",
        -9.458089828491213
      ],
      [
        "▁void",
        -9.45870304107666
      ],
      [
        "▁often",
        -9.458982467651367
      ],
      [
        "▁call",
        -9.459070205688477
      ],
      [
        "ズ",
        -9.459540367126465
      ],
      [
        "▁key",
        -9.463208198547363
      ],
      [
        "user",
        -9.463434219360352
      ],
      [
        "生",
        -9.46579360961914
      ],
      [
        "▁V",
        -9.468530654907228
      ],
      [
        "ture",
        -9.469614028930664
      ],
      [
        "▁sign",
        -9.469749450683594
      ],
      [
        "▁far",
        -9.469883918762209
      ],
      [
        "み",
        -9.470666885375977
      ],
      [
        "により",
        -9.47143840789795
      ],
      [
        "▁feel",
        -9.472129821777344
      ],
      [
        "▁several",
        -9.476178169250488
      ],
      [
        "▁city",
        -9.479850769042969
      ],
      [
        "▁means",
        -9.47987174987793
      ],
      [
        "▁May",
        -9.48019027709961
      ],
      [
        "のですが",
        -9.480916023254396
      ],
      [
        "方法",
        -9.48130226135254
      ],
      [
        "Re",
        -9.48230266571045
      ],
      [
        "部",
        -9.482486724853516
      ],
      [
        "▁online",
        -9.482768058776855
      ],
      [
        "あり",
        -9.48332977294922
      ],
      [
        "いた",
        -9.484389305114746
      ],
      [
        "さんの",
        -9.485424995422363
      ],
      [
        "▁No",
        -9.486308097839355
      ],
      [
        "ことができます",
        -9.486920356750488
      ],
      [
        "ゲーム",
        -9.486946105957031
      ],
      [
        "▁season",
        -9.487393379211426
      ],
      [
        "なんて",
        -9.488204956054688
      ],
      [
        "▁law",
        -9.490763664245604
      ],
      [
        "▁done",
        -9.49095344543457
      ],
      [
        "ちょっと",
        -9.491573333740234
      ],
      [
        "▁least",
        -9.492239952087402
      ],
      [
        "addition",
        -9.493104934692385
      ],
      [
        "▁York",
        -9.494179725646973
      ],
      [
        "left",
        -9.49485969543457
      ],
      [
        "▁less",
        -9.495216369628906
      ],
      [
        "▁：",
        -9.497182846069336
      ],
      [
        "material",
        -9.497355461120604
      ],
      [
        "会",
        -9.497936248779297
      ],
      [
        "///",
        -9.498197555541992
      ],
      [
        "▁relat",
        -9.498923301696776
      ],
      [
        "')",
        -9.500117301940918
      ],
      [
        "▁site",
        -9.500123023986816
      ],
      [
        "▁study",
        -9.500771522521973
      ],
      [
        "▁side",
        -9.501373291015623
      ],
      [
        "系",
        -9.502765655517578
      ],
      [
        "param",
        -9.503008842468262
      ],
      [
        "resource",
        -9.503174781799316
      ],
      [
        "での",
        -9.504993438720703
      ],
      [
        "ル",
        -9.505332946777344
      ],
      [
        "▁live",
        -9.50602912902832
      ],
      [
        "▁St",
        -9.507657051086426
      ],
      [
        "▁direct",
        -9.508373260498049
      ],
      [
        "▁fact",
        -9.508374214172363
      ],
      [
        "ism",
        -9.50950527191162
      ],
      [
        "点",
        -9.509554862976074
      ],
      [
        "▁big",
        -9.510085105895996
      ],
      [
        "▁money",
        -9.510475158691406
      ],
      [
        "力",
        -9.511967658996582
      ],
      [
        "リ",
        -9.512516021728516
      ],
      [
        "▁didn",
        -9.513341903686523
      ],
      [
        "代",
        -9.51412868499756
      ],
      [
        "▁able",
        -9.514162063598633
      ],
      [
        "▁along",
        -9.515077590942385
      ],
      [
        "▁certain",
        -9.515220642089844
      ],
      [
        "▁version",
        -9.515510559082031
      ],
      [
        "▁space",
        -9.516165733337402
      ],
      [
        "os",
        -9.517102241516112
      ],
      [
        "▁account",
        -9.517274856567385
      ],
      [
        "ground",
        -9.51823902130127
      ],
      [
        "▁website",
        -9.521371841430664
      ],
      [
        "これ",
        -9.522139549255373
      ],
      [
        "ような",
        -9.524304389953612
      ],
      [
        "▁false",
        -9.52596664428711
      ],
      [
        "▁continu",
        -9.528533935546877
      ],
      [
        "▁string",
        -9.528630256652832
      ],
      [
        "Programm",
        -9.529184341430664
      ],
      [
        "▁known",
        -9.530826568603516
      ],
      [
        "▁World",
        -9.53143310546875
      ],
      [
        "tive",
        -9.53174114227295
      ],
      [
        "required",
        -9.533782958984377
      ],
      [
        "▁sub",
        -9.53444004058838
      ],
      [
        "▁times",
        -9.535026550292969
      ],
      [
        "▁environ",
        -9.5357027053833
      ],
      [
        "Our",
        -9.535726547241213
      ],
      [
        "▁Code",
        -9.535950660705566
      ],
      [
        "的な",
        -9.538026809692385
      ],
      [
        "▁past",
        -9.53867244720459
      ],
      [
        "▁history",
        -9.539182662963867
      ],
      [
        "▁ever",
        -9.539384841918944
      ],
      [
        "ness",
        -9.540689468383787
      ],
      [
        "▁main",
        -9.541110038757324
      ],
      [
        "▁int",
        -9.54140281677246
      ],
      [
        "▁came",
        -9.54169750213623
      ],
      [
        "▁looking",
        -9.541791915893556
      ],
      [
        "▁enough",
        -9.542675018310549
      ],
      [
        "時に",
        -9.545714378356934
      ],
      [
        "▁human",
        -9.546028137207031
      ],
      [
        "▁manage",
        -9.546465873718262
      ],
      [
        "property",
        -9.546494483947754
      ],
      [
        "▁members",
        -9.546669006347656
      ],
      [
        "法",
        -9.547858238220217
      ],
      [
        "Get",
        -9.548750877380373
      ],
      [
        "▁let",
        -9.549805641174316
      ],
      [
        "全",
        -9.551217079162598
      ],
      [
        "▁l",
        -9.551437377929688
      ],
      [
        "内",
        -9.551791191101074
      ],
      [
        "▁early",
        -9.552398681640623
      ],
      [
        "コ",
        -9.553035736083984
      ],
      [
        "物",
        -9.554340362548828
      ],
      [
        "万",
        -9.554399490356444
      ],
      [
        "▁film",
        -9.554585456848145
      ],
      [
        "ar",
        -9.5557861328125
      ],
      [
        "js",
        -9.55622100830078
      ],
      [
        "tr",
        -9.556892395019531
      ],
      [
        "▁house",
        -9.557550430297852
      ],
      [
        "log",
        -9.559326171875
      ],
      [
        "万円",
        -9.55976676940918
      ],
      [
        "ノ",
        -9.559860229492188
      ],
      [
        "▁Co",
        -9.560076713562012
      ],
      [
        "美",
        -9.560712814331056
      ],
      [
        "location",
        -9.562505722045898
      ],
      [
        "？」",
        -9.562880516052246
      ],
      [
        "▁head",
        -9.563414573669434
      ],
      [
        "▁series",
        -9.564340591430664
      ],
      [
        "▁though",
        -9.5645112991333
      ],
      [
        "▁later",
        -9.564516067504885
      ],
      [
        "▁results",
        -9.565356254577637
      ],
      [
        "元",
        -9.56612491607666
      ],
      [
        "ted",
        -9.567745208740234
      ],
      [
        "▁single",
        -9.568059921264648
      ],
      [
        "▁page",
        -9.56827449798584
      ],
      [
        "▁States",
        -9.569594383239746
      ],
      [
        "▁educat",
        -9.571502685546877
      ],
      [
        "▁doesn",
        -9.57256317138672
      ],
      [
        "▁range",
        -9.57292652130127
      ],
      [
        "From",
        -9.572949409484863
      ],
      [
        "でしょう",
        -9.574356079101562
      ],
      [
        "▁app",
        -9.57468605041504
      ],
      [
        "見",
        -9.57481861114502
      ],
      [
        "ポイント",
        -9.57497787475586
      ],
      [
        "~",
        -9.577840805053713
      ],
      [
        "personal",
        -9.577946662902832
      ],
      [
        "ively",
        -9.578486442565918
      ],
      [
        "__",
        -9.57939338684082
      ],
      [
        "from",
        -9.58018398284912
      ],
      [
        "◆",
        -9.581530570983888
      ],
      [
        "▁code",
        -9.582781791687012
      ],
      [
        "▁due",
        -9.584168434143066
      ],
      [
        "key",
        -9.586791038513184
      ],
      [
        "```",
        -9.587017059326172
      ],
      [
        "▁City",
        -9.5875244140625
      ],
      [
        "いる",
        -9.587565422058104
      ],
      [
        "▁light",
        -9.587797164916992
      ],
      [
        "▁treat",
        -9.587923049926758
      ],
      [
        "▁hard",
        -9.587953567504885
      ],
      [
        "仕事",
        -9.588290214538574
      ],
      [
        "stand",
        -9.58869171142578
      ],
      [
        "▁needs",
        -9.590378761291504
      ],
      [
        "▁US",
        -9.590883255004885
      ],
      [
        "▁hand",
        -9.59130859375
      ],
      [
        "▁field",
        -9.591909408569336
      ],
      [
        "▁address",
        -9.592321395874023
      ],
      [
        "すると",
        -9.594078063964844
      ],
      [
        "▁discuss",
        -9.59429168701172
      ],
      [
        "standing",
        -9.594541549682615
      ],
      [
        "▁car",
        -9.594645500183104
      ],
      [
        "></",
        -9.594995498657228
      ],
      [
        "にある",
        -9.595102310180664
      ],
      [
        "file",
        -9.596558570861816
      ],
      [
        "path",
        -9.597179412841797
      ],
      [
        "女性",
        -9.598031997680664
      ],
      [
        "▁above",
        -9.59821891784668
      ],
      [
        "▁di",
        -9.598674774169922
      ],
      [
        "▁opportu",
        -9.59957504272461
      ],
      [
        "歳",
        -9.600208282470703
      ],
      [
        "ク",
        -9.600335121154783
      ],
      [
        "continue",
        -9.602148056030272
      ],
      [
        "よう",
        -9.602899551391602
      ],
      [
        "本当に",
        -9.603413581848145
      ],
      [
        "ト",
        -9.604104042053224
      ],
      [
        "家",
        -9.605391502380373
      ],
      [
        "▁others",
        -9.606440544128418
      ],
      [
        "車",
        -9.6073637008667
      ],
      [
        "all",
        -9.608763694763184
      ],
      [
        "ながら",
        -9.60878562927246
      ],
      [
        "▁record",
        -9.609533309936523
      ],
      [
        "▁believe",
        -9.610339164733888
      ],
      [
        "▁makes",
        -9.610657691955566
      ],
      [
        "▁reason",
        -9.613972663879396
      ],
      [
        "](",
        -9.617557525634766
      ],
      [
        "age",
        -9.61819839477539
      ],
      [
        "▁once",
        -9.618524551391602
      ],
      [
        "わ",
        -9.619494438171388
      ],
      [
        "▁body",
        -9.620254516601562
      ],
      [
        "▁took",
        -9.62074089050293
      ],
      [
        "まだ",
        -9.621297836303713
      ],
      [
        "映画",
        -9.621512413024902
      ],
      [
        "▁x",
        -9.622514724731444
      ],
      [
        "号",
        -9.622515678405762
      ],
      [
        "▁politic",
        -9.622830390930176
      ],
      [
        "▁Inter",
        -9.62308120727539
      ],
      [
        "東",
        -9.62346363067627
      ],
      [
        "/*",
        -9.623653411865234
      ],
      [
        "ラ",
        -9.624484062194824
      ],
      [
        "▁doing",
        -9.62499713897705
      ],
      [
        "▁request",
        -9.62571620941162
      ],
      [
        "サイト",
        -9.62574863433838
      ],
      [
        "▁won",
        -9.626306533813477
      ],
      [
        "actually",
        -9.626995086669922
      ],
      [
        "他の",
        -9.62745189666748
      ],
      [
        "▁food",
        -9.629220008850098
      ],
      [
        "▁media",
        -9.630008697509766
      ],
      [
        "う",
        -9.630663871765137
      ],
      [
        "様",
        -9.631845474243164
      ],
      [
        "standard",
        -9.632346153259276
      ],
      [
        "とても",
        -9.632804870605469
      ],
      [
        "出",
        -9.633112907409668
      ],
      [
        "ible",
        -9.63323211669922
      ],
      [
        "った",
        -9.634480476379396
      ],
      [
        "います",
        -9.634672164916992
      ],
      [
        "▁March",
        -9.635218620300291
      ],
      [
        "!!",
        -9.637478828430176
      ],
      [
        "ccording",
        -9.637667655944824
      ],
      [
        "▁whether",
        -9.637792587280272
      ],
      [
        "川",
        -9.638028144836426
      ],
      [
        "industry",
        -9.639727592468262
      ],
      [
        "▁author",
        -9.640356063842772
      ],
      [
        "original",
        -9.643187522888184
      ],
      [
        "それは",
        -9.643760681152344
      ],
      [
        "▁et",
        -9.64392375946045
      ],
      [
        "▁De",
        -9.646398544311523
      ],
      [
        "less",
        -9.64707088470459
      ],
      [
        "▁user",
        -9.647409439086914
      ],
      [
        "▁short",
        -9.647695541381836
      ],
      [
        "▁five",
        -9.647875785827637
      ],
      [
        "item",
        -9.648191452026367
      ],
      [
        "▁publish",
        -9.648238182067873
      ],
      [
        "▁method",
        -9.648398399353027
      ],
      [
        "され",
        -9.649194717407228
      ],
      [
        "新しい",
        -9.649240493774414
      ],
      [
        "▁seen",
        -9.649245262145996
      ],
      [
        "▁object",
        -9.64927577972412
      ],
      [
        "An",
        -9.650106430053713
      ],
      [
        "New",
        -9.650221824645996
      ],
      [
        "▁try",
        -9.650622367858888
      ],
      [
        "jp",
        -9.651633262634276
      ],
      [
        "expected",
        -9.65164279937744
      ],
      [
        "イベント",
        -9.65364933013916
      ],
      [
        "▁//",
        -9.653780937194824
      ],
      [
        "カ",
        -9.655436515808104
      ],
      [
        "▁const",
        -9.656014442443848
      ],
      [
        "目",
        -9.658302307128906
      ],
      [
        "View",
        -9.659114837646484
      ],
      [
        "▁!=",
        -9.659218788146973
      ],
      [
        "▁started",
        -9.659676551818848
      ],
      [
        "私の",
        -9.65990924835205
      ],
      [
        "二",
        -9.66054344177246
      ],
      [
        "previous",
        -9.66099452972412
      ],
      [
        "▁view",
        -9.661099433898926
      ],
      [
        "長",
        -9.661484718322754
      ],
      [
        "▁quality",
        -9.662002563476562
      ],
      [
        "風",
        -9.664950370788574
      ],
      [
        "private",
        -9.665550231933594
      ],
      [
        "ちゃん",
        -9.665996551513672
      ],
      [
        "田",
        -9.6664457321167
      ],
      [
        "▁kind",
        -9.666473388671877
      ],
      [
        "▁video",
        -9.66709327697754
      ],
      [
        "tructure",
        -9.66709804534912
      ],
      [
        "▁night",
        -9.668036460876465
      ],
      [
        "▁action",
        -9.668184280395508
      ],
      [
        "▁role",
        -9.66828155517578
      ],
      [
        "approach",
        -9.668733596801758
      ],
      [
        "▁yet",
        -9.669053077697754
      ],
      [
        "▁check",
        -9.66950225830078
      ],
      [
        "▁member",
        -9.670394897460938
      ],
      [
        "デザイン",
        -9.671231269836426
      ],
      [
        "花",
        -9.671340942382812
      ],
      [
        "index",
        -9.673182487487791
      ],
      [
        "ization",
        -9.673327445983888
      ],
      [
        "▁comes",
        -9.673697471618652
      ],
      [
        "線",
        -9.67374038696289
      ],
      [
        "security",
        -9.67384910583496
      ],
      [
        "decision",
        -9.67410945892334
      ],
      [
        "のです",
        -9.674887657165527
      ],
      [
        "ne",
        -9.676579475402832
      ],
      [
        "customer",
        -9.676694869995115
      ],
      [
        "▁months",
        -9.676997184753418
      ],
      [
        "白",
        -9.6786470413208
      ],
      [
        "ほど",
        -9.679755210876465
      ],
      [
        "▁offer",
        -9.679967880249023
      ],
      [
        "▁January",
        -9.680129051208496
      ],
      [
        "いて",
        -9.681614875793455
      ],
      [
        "While",
        -9.681695938110352
      ],
      [
        "ie",
        -9.68270778656006
      ],
      [
        "let",
        -9.682811737060549
      ],
      [
        "▁percent",
        -9.68329620361328
      ],
      [
        "▁further",
        -9.683550834655762
      ],
      [
        "▁energy",
        -9.68398666381836
      ],
      [
        "問題",
        -9.684457778930664
      ],
      [
        "▁add",
        -9.684505462646484
      ],
      [
        "include",
        -9.685019493103027
      ],
      [
        "▁getting",
        -9.68582820892334
      ],
      [
        "▁plan",
        -9.686155319213867
      ],
      [
        "frac",
        -9.68711757659912
      ],
      [
        "language",
        -9.687333106994627
      ],
      [
        "南",
        -9.687767028808594
      ],
      [
        "▁share",
        -9.6884183883667
      ],
      [
        "▁contain",
        -9.689776420593262
      ],
      [
        "▁job",
        -9.69064235687256
      ],
      [
        "あ",
        -9.691722869873049
      ],
      [
        "かな",
        -9.691824913024902
      ],
      [
        "github",
        -9.691865921020508
      ],
      [
        "\";",
        -9.6920166015625
      ],
      [
        "無料",
        -9.692151069641112
      ],
      [
        "写真",
        -9.692282676696776
      ],
      [
        "それ",
        -9.693277359008787
      ],
      [
        "');",
        -9.693522453308104
      ],
      [
        "▁School",
        -9.693779945373535
      ],
      [
        "があり",
        -9.693922996520996
      ],
      [
        "Value",
        -9.693930625915527
      ],
      [
        "land",
        -9.695356369018556
      ],
      [
        "カード",
        -9.696515083312988
      ],
      [
        "に関する",
        -9.696725845336914
      ],
      [
        "▁went",
        -9.697315216064451
      ],
      [
        "各",
        -9.697542190551758
      ],
      [
        "▁size",
        -9.697625160217283
      ],
      [
        "}$",
        -9.69913387298584
      ],
      [
        "▁among",
        -9.699275970458984
      ],
      [
        "▁bit",
        -9.699552536010742
      ],
      [
        "何",
        -9.700114250183104
      ],
      [
        "▁either",
        -9.700250625610352
      ],
      [
        "table",
        -9.700957298278809
      ],
      [
        "▁South",
        -9.702522277832031
      ],
      [
        "台",
        -9.70260524749756
      ],
      [
        "▁Ca",
        -9.703316688537598
      ],
      [
        "back",
        -9.70458698272705
      ],
      [
        "機能",
        -9.70459270477295
      ],
      [
        "year",
        -9.70570945739746
      ],
      [
        "道",
        -9.70585823059082
      ],
      [
        "▁April",
        -9.70615291595459
      ],
      [
        "▁major",
        -9.706513404846191
      ],
      [
        "December",
        -9.707618713378906
      ],
      [
        "▁June",
        -9.708261489868164
      ],
      [
        "}{",
        -9.709105491638184
      ],
      [
        "▁X",
        -9.71023178100586
      ],
      [
        "▁compani",
        -9.710684776306152
      ],
      [
        "▁install",
        -9.71104907989502
      ],
      [
        "カラー",
        -9.712241172790527
      ],
      [
        "November",
        -9.71639919281006
      ],
      [
        "付き",
        -9.71655559539795
      ],
      [
        "▁To",
        -9.71676254272461
      ],
      [
        "▁issues",
        -9.718579292297363
      ],
      [
        "大学",
        -9.718650817871094
      ],
      [
        "▁below",
        -9.719141960144045
      ],
      [
        "be",
        -9.719244956970217
      ],
      [
        "▁content",
        -9.719331741333008
      ],
      [
        "********",
        -9.720498085021973
      ],
      [
        "▁express",
        -9.72085666656494
      ],
      [
        "▁young",
        -9.721134185791016
      ],
      [
        "width",
        -9.722872734069824
      ],
      [
        "いい",
        -9.723384857177734
      ],
      [
        "▁low",
        -9.72349452972412
      ],
      [
        "form",
        -9.723858833312988
      ],
      [
        "▁John",
        -9.724724769592283
      ],
      [
        "▁North",
        -9.724781036376951
      ],
      [
        "use",
        -9.725417137145996
      ],
      [
        "OK",
        -9.727837562561035
      ],
      [
        "ul",
        -9.729534149169922
      ],
      [
        "西",
        -9.73070240020752
      ],
      [
        "されている",
        -9.732610702514648
      ],
      [
        "▁told",
        -9.733358383178713
      ],
      [
        "▁generat",
        -9.733570098876951
      ],
      [
        "のみ",
        -9.736278533935549
      ],
      [
        "▁God",
        -9.736531257629396
      ],
      [
        "たい",
        -9.736786842346191
      ],
      [
        "▁photo",
        -9.737378120422363
      ],
      [
        "br",
        -9.738457679748535
      ],
      [
        "ors",
        -9.7398681640625
      ],
      [
        "ia",
        -9.740534782409668
      ],
      [
        "me",
        -9.740927696228027
      ],
      [
        "el",
        -9.741095542907717
      ],
      [
        "▁men",
        -9.741229057312012
      ],
      [
        "assert",
        -9.741640090942385
      ],
      [
        "▁whole",
        -9.743205070495604
      ],
      [
        "app",
        -9.746007919311523
      ],
      [
        "▁style",
        -9.746249198913574
      ],
      [
        "▁error",
        -9.74642562866211
      ],
      [
        "タイプ",
        -9.746776580810549
      ],
      [
        "res",
        -9.74855136871338
      ],
      [
        "良い",
        -9.748623847961426
      ],
      [
        "▁cost",
        -9.748942375183104
      ],
      [
        "島",
        -9.749369621276855
      ],
      [
        "▁build",
        -9.74962329864502
      ],
      [
        "▁y",
        -9.749649047851562
      ],
      [
        "▁href",
        -9.750507354736328
      ],
      [
        "▁July",
        -9.751219749450684
      ],
      [
        "野",
        -9.75133228302002
      ],
      [
        "－",
        -9.752364158630373
      ],
      [
        "こ",
        -9.75367259979248
      ],
      [
        "ています",
        -9.754132270812988
      ],
      [
        "▁issue",
        -9.75437355041504
      ],
      [
        "国",
        -9.754545211791992
      ],
      [
        "管理",
        -9.75461769104004
      ],
      [
        "▁You",
        -9.755230903625488
      ],
      [
        "▁suggest",
        -9.756349563598633
      ],
      [
        "▁private",
        -9.75783348083496
      ],
      [
        "▁total",
        -9.758135795593262
      ],
      [
        "▁room",
        -9.75839900970459
      ],
      [
        "人の",
        -9.758427619934082
      ],
      [
        "同じ",
        -9.758479118347168
      ],
      [
        "PC",
        -9.75873565673828
      ],
      [
        "版",
        -9.758769989013672
      ],
      [
        "Error",
        -9.758883476257324
      ],
      [
        "ists",
        -9.75899600982666
      ],
      [
        "▁clear",
        -9.75946044921875
      ],
      [
        "where",
        -9.76218605041504
      ],
      [
        "(\\",
        -9.762245178222656
      ],
      [
        "度",
        -9.764071464538574
      ],
      [
        "script",
        -9.764513969421388
      ],
      [
        "▁potenti",
        -9.766324996948242
      ],
      [
        "光",
        -9.766414642333984
      ],
      [
        "▁child",
        -9.767144203186035
      ],
      [
        "よく",
        -9.76731014251709
      ],
      [
        "▁easy",
        -9.768226623535156
      ],
      [
        "神",
        -9.768994331359863
      ],
      [
        "販売",
        -9.769086837768556
      ],
      [
        "和",
        -9.769883155822754
      ],
      [
        "▁expect",
        -9.770607948303224
      ],
      [
        "していた",
        -9.771279335021973
      ],
      [
        "マ",
        -9.772035598754885
      ],
      [
        "▁respect",
        -9.773563385009766
      ],
      [
        "からの",
        -9.774624824523926
      ],
      [
        "▁works",
        -9.775710105895996
      ],
      [
        "となる",
        -9.778329849243164
      ],
      [
        "ibility",
        -9.778362274169922
      ],
      [
        "海",
        -9.779297828674316
      ],
      [
        "▁similar",
        -9.780404090881348
      ],
      [
        "▁period",
        -9.780762672424316
      ],
      [
        "または",
        -9.780843734741213
      ],
      [
        "▁America",
        -9.783370018005373
      ],
      [
        "▁https",
        -9.784253120422363
      ],
      [
        "▁hours",
        -9.784917831420898
      ],
      [
        "▁contact",
        -9.78510856628418
      ],
      [
        "つの",
        -9.785377502441406
      ],
      [
        "▁»",
        -9.785589218139648
      ],
      [
        "go",
        -9.785652160644531
      ],
      [
        "事業",
        -9.786872863769531
      ],
      [
        "’",
        -9.787158966064451
      ],
      [
        "▁improve",
        -9.787446022033691
      ],
      [
        "▁static",
        -9.787822723388672
      ],
      [
        "式",
        -9.788602828979492
      ],
      [
        "▁pro",
        -9.789386749267578
      ],
      [
        "ting",
        -9.789917945861816
      ],
      [
        "▁ago",
        -9.790240287780762
      ],
      [
        "▁network",
        -9.790507316589355
      ],
      [
        "よりも",
        -9.791215896606444
      ],
      [
        "▁move",
        -9.793509483337402
      ],
      [
        "training",
        -9.793609619140623
      ],
      [
        "システム",
        -9.793731689453123
      ],
      [
        "現在",
        -9.793840408325195
      ],
      [
        "環境",
        -9.794281959533691
      ],
      [
        "].",
        -9.79541015625
      ],
      [
        "動画",
        -9.795607566833496
      ],
      [
        "場所",
        -9.796422958374023
      ],
      [
        "私",
        -9.796676635742188
      ],
      [
        "シリーズ",
        -9.797259330749512
      ],
      [
        "▁...",
        -9.797281265258787
      ],
      [
        "url",
        -9.797477722167969
      ],
      [
        "のある",
        -9.798707008361816
      ],
      [
        "イ",
        -9.799413681030272
      ],
      [
        "地",
        -9.801019668579102
      ],
      [
        "field",
        -9.804545402526855
      ],
      [
        "生活",
        -9.805060386657717
      ],
      [
        "ication",
        -9.80621337890625
      ],
      [
        "min",
        -9.806255340576172
      ],
      [
        "少し",
        -9.80802059173584
      ],
      [
        "ホテル",
        -9.808122634887695
      ],
      [
        "▁close",
        -9.808266639709473
      ],
      [
        "▁third",
        -9.810245513916016
      ],
      [
        "だけで",
        -9.810373306274414
      ],
      [
        "▁&&",
        -9.811248779296877
      ],
      [
        "style",
        -9.811692237854004
      ],
      [
        "利用",
        -9.812644004821776
      ],
      [
        "ating",
        -9.813231468200684
      ],
      [
        "un",
        -9.81347370147705
      ],
      [
        "になった",
        -9.814278602600098
      ],
      [
        "▁taken",
        -9.814492225646973
      ],
      [
        "▁art",
        -9.8152437210083
      ],
      [
        "▁idea",
        -9.816277503967283
      ],
      [
        "provided",
        -9.817020416259766
      ],
      [
        "▁search",
        -9.817953109741213
      ],
      [
        "NAME",
        -9.81820583343506
      ],
      [
        "ブログ",
        -9.818446159362791
      ],
      [
        "人は",
        -9.818724632263184
      ],
      [
        "File",
        -9.819794654846191
      ],
      [
        "color",
        -9.819828033447266
      ],
      [
        "▁changes",
        -9.82204246520996
      ],
      [
        "am",
        -9.82237148284912
      ],
      [
        "val",
        -9.822857856750488
      ],
      [
        "son",
        -9.823179244995115
      ],
      [
        "今日は",
        -9.823246955871582
      ],
      [
        "Set",
        -9.824416160583496
      ],
      [
        "購入",
        -9.8258056640625
      ],
      [
        "▁global",
        -9.825960159301758
      ],
      [
        "▁various",
        -9.826144218444824
      ],
      [
        "▁subject",
        -9.8262357711792
      ],
      [
        "心",
        -9.826744079589844
      ],
      [
        "大きな",
        -9.8269624710083
      ],
      [
        "データ",
        -9.828875541687012
      ],
      [
        "▁text",
        -9.829011917114258
      ],
      [
        "equation",
        -9.829045295715332
      ],
      [
        "▁perfect",
        -9.829076766967772
      ],
      [
        "features",
        -9.829818725585938
      ],
      [
        "▁House",
        -9.829889297485352
      ],
      [
        "▁added",
        -9.830103874206545
      ],
      [
        "Now",
        -9.830610275268556
      ],
      [
        "input",
        -9.830655097961426
      ],
      [
        "会社",
        -9.830801010131836
      ],
      [
        "外",
        -9.830873489379885
      ],
      [
        "▁face",
        -9.832053184509276
      ],
      [
        "▁October",
        -9.832060813903809
      ],
      [
        "ine",
        -9.832175254821776
      ],
      [
        "▁Con",
        -9.833556175231934
      ],
      [
        "前に",
        -9.835261344909668
      ],
      [
        "＋",
        -9.835516929626465
      ],
      [
        "em",
        -9.836703300476074
      ],
      [
        "Object",
        -9.83767795562744
      ],
      [
        "▁represe",
        -9.837749481201172
      ],
      [
        "▁games",
        -9.838262557983398
      ],
      [
        "▁points",
        -9.838339805603027
      ],
      [
        "▁everyth",
        -9.839166641235352
      ],
      [
        "＜",
        -9.839466094970703
      ],
      [
        "ナ",
        -9.839581489562988
      ],
      [
        "increase",
        -9.840924263000488
      ],
      [
        "作品",
        -9.842244148254396
      ],
      [
        "▁applica",
        -9.842459678649902
      ],
      [
        "ダ",
        -9.842790603637695
      ],
      [
        "ently",
        -9.843191146850586
      ],
      [
        "となります",
        -9.843450546264648
      ],
      [
        "レ",
        -9.843816757202148
      ],
      [
        "().",
        -9.84404468536377
      ],
      [
        "▁【",
        -9.846623420715332
      ],
      [
        "▁article",
        -9.846624374389648
      ],
      [
        "▁necess",
        -9.847261428833008
      ],
      [
        "したい",
        -9.847765922546388
      ],
      [
        "▁taking",
        -9.848221778869627
      ],
      [
        "api",
        -9.848544120788574
      ],
      [
        "▁events",
        -9.84878921508789
      ],
      [
        "ma",
        -9.849387168884276
      ],
      [
        "▁almost",
        -9.84972095489502
      ],
      [
        "▁half",
        -9.849931716918944
      ],
      [
        "▁created",
        -9.85151481628418
      ],
      [
        "……",
        -9.851625442504885
      ],
      [
        "_{\\",
        -9.85219955444336
      ],
      [
        "▁image",
        -9.852357864379885
      ],
      [
        "ences",
        -9.853072166442873
      ],
      [
        "できます",
        -9.85313606262207
      ],
      [
        "));",
        -9.853338241577148
      ],
      [
        "State",
        -9.853537559509276
      ],
      [
        "▁visit",
        -9.854621887207031
      ],
      [
        "体",
        -9.854875564575195
      ],
      [
        "products",
        -9.855311393737791
      ],
      [
        "based",
        -9.855596542358398
      ],
      [
        "};",
        -9.85561752319336
      ],
      [
        "活動",
        -9.85621452331543
      ],
      [
        "企業",
        -9.856473922729492
      ],
      [
        "▁writing",
        -9.856731414794922
      ],
      [
        "ological",
        -9.857524871826172
      ],
      [
        "php",
        -9.857837677001951
      ],
      [
        "のような",
        -9.858050346374512
      ],
      [
        "枚",
        -9.85927391052246
      ],
      [
        "愛",
        -9.859574317932127
      ],
      [
        "▁August",
        -9.859594345092772
      ],
      [
        "icular",
        -9.859780311584473
      ],
      [
        "construc",
        -9.86005401611328
      ],
      [
        "こんな",
        -9.860857009887695
      ],
      [
        "ではなく",
        -9.861823081970217
      ],
      [
        "})",
        -9.862338066101074
      ],
      [
        "ry",
        -9.862420082092283
      ],
      [
        "start",
        -9.862512588500977
      ],
      [
        "屋",
        -9.862582206726074
      ],
      [
        "所",
        -9.862720489501951
      ],
      [
        "ことで",
        -9.862829208374023
      ],
      [
        "February",
        -9.863356590270996
      ],
      [
        "日本の",
        -9.864023208618164
      ],
      [
        "my",
        -9.864320755004885
      ],
      [
        "Some",
        -9.8651762008667
      ],
      [
        "practice",
        -9.865670204162598
      ],
      [
        "まず",
        -9.86601734161377
      ],
      [
        "超",
        -9.86605167388916
      ],
      [
        "received",
        -9.867481231689451
      ],
      [
        "▁date",
        -9.868383407592772
      ],
      [
        "▁month",
        -9.86913013458252
      ],
      [
        "print",
        -9.869356155395508
      ],
      [
        "▁rights",
        -9.869489669799805
      ],
      [
        "▁pay",
        -9.86953353881836
      ],
      [
        "link",
        -9.869709014892578
      ],
      [
        "使用",
        -9.869915962219238
      ],
      [
        "同",
        -9.870586395263672
      ],
      [
        "▁West",
        -9.870975494384766
      ],
      [
        "determin",
        -9.872669219970703
      ],
      [
        "▁trying",
        -9.872733116149902
      ],
      [
        ">>",
        -9.872964859008787
      ],
      [
        "▁source",
        -9.873172760009766
      ],
      [
        "＝",
        -9.873184204101562
      ],
      [
        "▁shows",
        -9.873497009277344
      ],
      [
        "▁however",
        -9.874091148376465
      ],
      [
        "void",
        -9.875370979309082
      ],
      [
        "▁age",
        -9.875844955444336
      ],
      [
        "anything",
        -9.876006126403809
      ],
      [
        "北",
        -9.877055168151855
      ],
      [
        "▁County",
        -9.877241134643556
      ],
      [
        "っ",
        -9.877765655517578
      ],
      [
        "▁natural",
        -9.879301071166992
      ],
      [
        "▁mean",
        -9.879589080810549
      ],
      [
        "人が",
        -9.880066871643066
      ],
      [
        "▁Center",
        -9.881442070007324
      ],
      [
        "state",
        -9.881958961486816
      ],
      [
        "▁price",
        -9.882046699523926
      ],
      [
        "▁respons",
        -9.882234573364258
      ],
      [
        "▁review",
        -9.88232707977295
      ],
      [
        "品",
        -9.882429122924805
      ],
      [
        "▁message",
        -9.883399963378906
      ],
      [
        "石",
        -9.883587837219238
      ],
      [
        "▁black",
        -9.884466171264648
      ],
      [
        "▁strong",
        -9.886032104492188
      ],
      [
        "▁rather",
        -9.886242866516112
      ],
      [
        "▁News",
        -9.888211250305176
      ],
      [
        "▁recent",
        -9.888607025146484
      ],
      [
        "with",
        -9.889041900634766
      ],
      [
        "プロ",
        -9.889086723327637
      ],
      [
        "）、",
        -9.889479637145996
      ],
      [
        "人気",
        -9.890700340270996
      ],
      [
        "行",
        -9.890738487243652
      ],
      [
        "▁learn",
        -9.891701698303224
      ],
      [
        "▁common",
        -9.891889572143556
      ],
      [
        "む",
        -9.89258861541748
      ],
      [
        "▁white",
        -9.89388656616211
      ],
      [
        "▁news",
        -9.894231796264648
      ],
      [
        "戦",
        -9.894424438476562
      ],
      [
        "ことを",
        -9.894643783569336
      ],
      [
        "▁String",
        -9.894999504089355
      ],
      [
        "平",
        -9.89531421661377
      ],
      [
        "challeng",
        -9.896110534667969
      ],
      [
        "であり",
        -9.896523475646973
      ],
      [
        "様々な",
        -9.89669704437256
      ],
      [
        "});",
        -9.89820384979248
      ],
      [
        "▁areas",
        -9.899054527282717
      ],
      [
        "ネット",
        -9.89968490600586
      ],
      [
        "画像",
        -9.900118827819824
      ],
      [
        "世界",
        -9.900221824645996
      ],
      [
        "▁lead",
        -9.90196704864502
      ],
      [
        "▁policy",
        -9.902268409729004
      ],
      [
        "▁display",
        -9.90322494506836
      ],
      [
        "ず",
        -9.903366088867188
      ],
      [
        "da",
        -9.903644561767578
      ],
      [
        "▁likely",
        -9.904108047485352
      ],
      [
        "内容",
        -9.90434741973877
      ],
      [
        "▁held",
        -9.904441833496094
      ],
      [
        "▁table",
        -9.904715538024902
      ],
      [
        "▁Septemb",
        -9.905184745788574
      ],
      [
        "価格",
        -9.905684471130373
      ],
      [
        "Here",
        -9.906909942626951
      ],
      [
        "▁Christ",
        -9.907078742980955
      ],
      [
        "については",
        -9.907118797302246
      ],
      [
        "私が",
        -9.90741729736328
      ],
      [
        "▁System",
        -9.907899856567385
      ],
      [
        "bar",
        -9.90817642211914
      ],
      [
        "地域",
        -9.908334732055664
      ],
      [
        "▁color",
        -9.909079551696776
      ],
      [
        "▁financi",
        -9.909157752990724
      ],
      [
        "▁mind",
        -9.909191131591797
      ],
      [
        "▁forward",
        -9.909202575683594
      ],
      [
        "▁especi",
        -9.909420013427734
      ],
      [
        "無",
        -9.909628868103027
      ],
      [
        "社",
        -9.910079956054688
      ],
      [
        "title",
        -9.910374641418455
      ],
      [
        "cite",
        -9.911084175109863
      ],
      [
        "天",
        -9.911134719848633
      ],
      [
        "ません",
        -9.911480903625488
      ],
      [
        "▁bring",
        -9.91224193572998
      ],
      [
        "ra",
        -9.91259479522705
      ],
      [
        "old",
        -9.913629531860352
      ],
      [
        "対策",
        -9.913658142089844
      ],
      [
        "}}",
        -9.914138793945312
      ],
      [
        "top",
        -9.91439437866211
      ],
      [
        "以上",
        -9.914581298828123
      ],
      [
        "ま",
        -9.914831161499023
      ],
      [
        "ical",
        -9.915098190307615
      ],
      [
        "Info",
        -9.915215492248535
      ],
      [
        "▁front",
        -9.915693283081056
      ],
      [
        "▁amount",
        -9.9161958694458
      ],
      [
        "▁someone",
        -9.916205406188965
      ],
      [
        "Is",
        -9.916929244995115
      ],
      [
        "番",
        -9.917031288146973
      ],
      [
        "one",
        -9.917221069335938
      ],
      [
        "でしょうか",
        -9.9176025390625
      ],
      [
        "作業",
        -9.9177885055542
      ],
      [
        "Then",
        -9.917854309082031
      ],
      [
        "との",
        -9.91808795928955
      ],
      [
        "における",
        -9.918704986572266
      ],
      [
        "election",
        -9.91885471343994
      ],
      [
        "do",
        -9.9194974899292
      ],
      [
        "▁quite",
        -9.919718742370604
      ],
      [
        "まずは",
        -9.919750213623049
      ],
      [
        "個",
        -9.920101165771484
      ],
      [
        "na",
        -9.920370101928713
      ],
      [
        "▁via",
        -9.921269416809082
      ],
      [
        "His",
        -9.92180061340332
      ],
      [
        "▁partner",
        -9.92194652557373
      ],
      [
        "▁http",
        -9.923136711120604
      ],
      [
        "サ",
        -9.923205375671388
      ],
      [
        "▁war",
        -9.923274040222168
      ],
      [
        "str",
        -9.92381763458252
      ],
      [
        "error",
        -9.924324989318848
      ],
      [
        "もちろん",
        -9.925156593322754
      ],
      [
        "コース",
        -9.925707817077637
      ],
      [
        "tor",
        -9.925978660583496
      ],
      [
        "▁needed",
        -9.926054000854492
      ],
      [
        "Not",
        -9.92898654937744
      ],
      [
        "▁office",
        -9.929069519042969
      ],
      [
        "yyy",
        -9.929315567016602
      ],
      [
        "▁select",
        -9.929696083068848
      ],
      [
        "director",
        -9.93117904663086
      ],
      [
        "tional",
        -9.931209564208984
      ],
      [
        "といった",
        -9.932697296142578
      ],
      [
        "▁shall",
        -9.934558868408203
      ],
      [
        "========",
        -9.93459701538086
      ],
      [
        "▁staff",
        -9.935237884521484
      ],
      [
        "▁allow",
        -9.935417175292969
      ],
      [
        "▁terms",
        -9.936116218566896
      ],
      [
        "モデル",
        -9.936197280883787
      ],
      [
        "▁living",
        -9.936516761779783
      ],
      [
        "気",
        -9.936566352844238
      ],
      [
        "口",
        -9.93695831298828
      ],
      [
        "及び",
        -9.93703556060791
      ],
      [
        "以下",
        -9.93710994720459
      ],
      [
        "ん",
        -9.93712329864502
      ],
      [
        "nd",
        -9.93795108795166
      ],
      [
        "▁section",
        -9.938127517700195
      ],
      [
        "';",
        -9.938518524169922
      ],
      [
        "▁||",
        -9.939620018005373
      ],
      [
        "▁simple",
        -9.93990707397461
      ],
      [
        "Do",
        -9.940302848815918
      ],
      [
        "▁cases",
        -9.940632820129396
      ],
      [
        "economic",
        -9.940801620483398
      ],
      [
        "▁fun",
        -9.940850257873535
      ],
      [
        "Of",
        -9.943425178527832
      ],
      [
        "▁UK",
        -9.945402145385742
      ],
      [
        "▁cannot",
        -9.945637702941896
      ],
      [
        "年に",
        -9.945696830749512
      ],
      [
        "▁release",
        -9.94583225250244
      ],
      [
        "▁upon",
        -9.946422576904297
      ],
      [
        "自分",
        -9.946466445922852
      ],
      [
        "▁Health",
        -9.94705295562744
      ],
      [
        "▁matter",
        -9.948163986206056
      ],
      [
        "村",
        -9.948286056518556
      ],
      [
        "オ",
        -9.948407173156738
      ],
      [
        "▁coming",
        -9.949628829956056
      ],
      [
        "え",
        -9.950177192687988
      ],
      [
        "ケース",
        -9.950701713562012
      ],
      [
        "▁air",
        -9.951379776000977
      ],
      [
        "▁except",
        -9.951435089111328
      ],
      [
        "場合",
        -9.952083587646484
      ],
      [
        "▁minutes",
        -9.952786445617676
      ],
      [
        "かなり",
        -9.953295707702637
      ],
      [
        "▁risk",
        -9.95389461517334
      ],
      [
        "教育",
        -9.954079627990724
      ],
      [
        "▁heart",
        -9.954161643981934
      ],
      [
        "platform",
        -9.954739570617676
      ],
      [
        "ブランド",
        -9.95582675933838
      ],
      [
        "▁We",
        -9.955909729003906
      ],
      [
        "▁friends",
        -9.956445693969728
      ],
      [
        "probably",
        -9.958769798278809
      ],
      [
        "しない",
        -9.95932960510254
      ],
      [
        "Key",
        -9.960890769958496
      ],
      [
        "のように",
        -9.961664199829102
      ],
      [
        "Text",
        -9.962237358093262
      ],
      [
        "▁hope",
        -9.962971687316896
      ],
      [
        "='",
        -9.963003158569336
      ],
      [
        "できない",
        -9.963772773742676
      ],
      [
        "▁el",
        -9.96406078338623
      ],
      [
        "▁seems",
        -9.9654541015625
      ],
      [
        "▁systems",
        -9.965548515319824
      ],
      [
        "音",
        -9.965801239013672
      ],
      [
        "omponent",
        -9.966712951660156
      ],
      [
        "さんが",
        -9.966900825500488
      ],
      [
        "▁appear",
        -9.966901779174805
      ],
      [
        "▁court",
        -9.967123031616213
      ],
      [
        "Request",
        -9.968015670776367
      ],
      [
        "());",
        -9.968194007873535
      ],
      [
        "▁death",
        -9.968453407287598
      ],
      [
        "▁options",
        -9.96849536895752
      ],
      [
        "に対して",
        -9.968995094299316
      ],
      [
        "▁behind",
        -9.970074653625488
      ],
      [
        "黒",
        -9.970122337341309
      ],
      [
        "▁increas",
        -9.970230102539062
      ],
      [
        "まとめ",
        -9.970272064208984
      ],
      [
        "および",
        -9.97037124633789
      ],
      [
        "▁near",
        -9.971842765808104
      ],
      [
        "赤",
        -9.972545623779297
      ],
      [
        "▁unique",
        -9.972694396972656
      ],
      [
        "▁party",
        -9.973257064819336
      ],
      [
        "れば",
        -9.974053382873535
      ],
      [
        "ｗ",
        -9.974523544311523
      ],
      [
        "software",
        -9.974677085876465
      ],
      [
        "▁break",
        -9.974709510803224
      ],
      [
        "▁der",
        -9.975005149841309
      ],
      [
        "map",
        -9.97516918182373
      ],
      [
        "センター",
        -9.9757661819458
      ],
      [
        "食",
        -9.97580909729004
      ],
      [
        "ぜひ",
        -9.9763765335083
      ],
      [
        "場合は",
        -9.97644329071045
      ],
      [
        "実際に",
        -9.977416038513184
      ],
      [
        "▁:=",
        -9.977548599243164
      ],
      [
        "において",
        -9.978248596191406
      ],
      [
        "真",
        -9.978466033935549
      ],
      [
        "▁impact",
        -9.978720664978027
      ],
      [
        "いつも",
        -9.979344367980955
      ],
      [
        "▁tell",
        -9.980186462402344
      ],
      [
        "▁tradit",
        -9.980788230895996
      ],
      [
        "どんな",
        -9.981263160705566
      ],
      [
        "▁turn",
        -9.982285499572754
      ],
      [
        "▁deliver",
        -9.98254680633545
      ],
      [
        "▁enter",
        -9.982989311218262
      ],
      [
        "のに",
        -9.9832181930542
      ],
      [
        "instance",
        -9.984051704406738
      ],
      [
        "バー",
        -9.984200477600098
      ],
      [
        "Service",
        -9.985101699829102
      ],
      [
        "原",
        -9.98519802093506
      ],
      [
        "employee",
        -9.985342979431152
      ],
      [
        "▁former",
        -9.985456466674805
      ],
      [
        "評価",
        -9.986235618591309
      ],
      [
        "▁activ",
        -9.98626708984375
      ],
      [
        "頭",
        -9.986557006835938
      ],
      [
        "▁target",
        -9.986886024475098
      ],
      [
        "everyone",
        -9.98708724975586
      ],
      [
        "今回の",
        -9.987844467163086
      ],
      [
        "▁higher",
        -9.987916946411133
      ],
      [
        "をする",
        -9.98819351196289
      ],
      [
        "いたします",
        -9.988287925720217
      ],
      [
        "db",
        -9.988346099853516
      ],
      [
        "設定",
        -9.98847770690918
      ],
      [
        "日に",
        -9.988727569580078
      ],
      [
        "タ",
        -9.988983154296877
      ],
      [
        "▁leader",
        -9.989395141601562
      ],
      [
        "▁values",
        -9.990180015563965
      ],
      [
        "実は",
        -9.992391586303713
      ],
      [
        "register",
        -9.992512702941896
      ],
      [
        "];",
        -9.992722511291504
      ],
      [
        "▁words",
        -9.99345588684082
      ],
      [
        "平成",
        -9.993457794189451
      ],
      [
        "contract",
        -9.993962287902832
      ],
      [
        "▁establ",
        -9.993992805480955
      ],
      [
        "▁id",
        -9.99425220489502
      ],
      [
        "else",
        -9.995328903198242
      ],
      [
        "別",
        -9.995368003845217
      ],
      [
        "○",
        -9.995644569396973
      ],
      [
        "ley",
        -9.995731353759766
      ],
      [
        "Director",
        -9.99601936340332
      ],
      [
        "▁six",
        -9.9960298538208
      ],
      [
        "▁wanted",
        -9.996329307556152
      ],
      [
        "▁please",
        -9.996593475341797
      ],
      [
        "限定",
        -9.997518539428713
      ],
      [
        "ビジネス",
        -9.998529434204102
      ],
      [
        "▁running",
        -10.000417709350586
      ],
      [
        "pi",
        -10.000640869140623
      ],
      [
        "ionship",
        -10.000794410705566
      ],
      [
        "▁applic",
        -10.001412391662598
      ],
      [
        "▁popular",
        -10.001498222351074
      ],
      [
        "しか",
        -10.001708984375
      ],
      [
        "毎日",
        -10.001867294311523
      ],
      [
        "ために",
        -10.002242088317873
      ],
      [
        "アプリ",
        -10.002421379089355
      ],
      [
        "Research",
        -10.004036903381348
      ],
      [
        "length",
        -10.004087448120115
      ],
      [
        "アップ",
        -10.004586219787598
      ],
      [
        "info",
        -10.005378723144531
      ],
      [
        "▁nothing",
        -10.00544548034668
      ],
      [
        "Test",
        -10.006339073181152
      ],
      [
        "夏",
        -10.007770538330078
      ],
      [
        "マン",
        -10.00798511505127
      ],
      [
        "▁receive",
        -10.00813102722168
      ],
      [
        "そうです",
        -10.009193420410156
      ],
      [
        "他",
        -10.009217262268066
      ],
      [
        "面",
        -10.00947380065918
      ],
      [
        "不",
        -10.009651184082031
      ],
      [
        "▁focus",
        -10.011029243469238
      ],
      [
        "▁rate",
        -10.01120376586914
      ],
      [
        "になって",
        -10.01247215270996
      ],
      [
        "ですよね",
        -10.01280117034912
      ],
      [
        "▁sense",
        -10.01301097869873
      ],
      [
        "何か",
        -10.013023376464844
      ],
      [
        "▁die",
        -10.013609886169434
      ],
      [
        "なんか",
        -10.013962745666504
      ],
      [
        "件",
        -10.01437759399414
      ],
      [
        "▁deal",
        -10.01461124420166
      ],
      [
        "んだ",
        -10.014619827270508
      ],
      [
        "ter",
        -10.015830039978027
      ],
      [
        "▁outside",
        -10.016423225402832
      ],
      [
        "▁student",
        -10.016889572143556
      ],
      [
        "▁g",
        -10.018182754516602
      ],
      [
        "ム",
        -10.018752098083496
      ],
      [
        "?\"",
        -10.018780708312988
      ],
      [
        "▁All",
        -10.01917552947998
      ],
      [
        "着",
        -10.01960277557373
      ],
      [
        "investig",
        -10.019645690917969
      ],
      [
        "▁Pro",
        -10.01993179321289
      ],
      [
        "▁super",
        -10.020393371582031
      ],
      [
        "音楽",
        -10.021210670471191
      ],
      [
        "mu",
        -10.022042274475098
      ],
      [
        "analysis",
        -10.02208423614502
      ],
      [
        "▁became",
        -10.022306442260742
      ],
      [
        "▁title",
        -10.022502899169922
      ],
      [
        "ザ",
        -10.022746086120604
      ],
      [
        "nity",
        -10.023433685302734
      ],
      [
        "形",
        -10.023758888244627
      ],
      [
        "技術",
        -10.024227142333984
      ],
      [
        "▁asked",
        -10.024486541748049
      ],
      [
        "ハ",
        -10.02452564239502
      ],
      [
        "▁For",
        -10.024608612060549
      ],
      [
        "文",
        -10.024734497070312
      ],
      [
        "▁travel",
        -10.024975776672363
      ],
      [
        "max",
        -10.02524757385254
      ],
      [
        "そこで",
        -10.026654243469238
      ],
      [
        "ledge",
        -10.026731491088867
      ],
      [
        "ありがとうござい",
        -10.026771545410156
      ],
      [
        "autiful",
        -10.027106285095217
      ],
      [
        "店舗",
        -10.027432441711426
      ],
      [
        "▁meeting",
        -10.027796745300291
      ],
      [
        "▁impleme",
        -10.028604507446287
      ],
      [
        "▁offers",
        -10.028979301452637
      ],
      [
        "▁step",
        -10.030250549316406
      ],
      [
        "と思う",
        -10.030840873718262
      ],
      [
        "んです",
        -10.03103733062744
      ],
      [
        "の中で",
        -10.032468795776367
      ],
      [
        "登録",
        -10.032696723937988
      ],
      [
        "ished",
        -10.032782554626465
      ],
      [
        "Context",
        -10.032866477966309
      ],
      [
        "included",
        -10.032938957214355
      ],
      [
        "治療",
        -10.033358573913574
      ],
      [
        "多くの",
        -10.033408164978027
      ],
      [
        "イン",
        -10.033841133117676
      ],
      [
        "というのは",
        -10.034499168395996
      ],
      [
        "template",
        -10.03531265258789
      ],
      [
        "▁takes",
        -10.036314964294434
      ],
      [
        "料理",
        -10.036354064941406
      ],
      [
        "）」",
        -10.036879539489746
      ],
      [
        "case",
        -10.03712272644043
      ],
      [
        "▁situa",
        -10.037665367126465
      ],
      [
        "感",
        -10.037737846374512
      ],
      [
        "alpha",
        -10.037799835205078
      ],
      [
        "Facebook",
        -10.037872314453123
      ],
      [
        "ommittee",
        -10.038304328918455
      ],
      [
        "を使って",
        -10.038376808166504
      ],
      [
        "調査",
        -10.038776397705078
      ],
      [
        "▁La",
        -10.039134979248049
      ],
      [
        "かもしれません",
        -10.040376663208008
      ],
      [
        "pm",
        -10.040886878967283
      ],
      [
        "最近",
        -10.040970802307127
      ],
      [
        "▁India",
        -10.041128158569336
      ],
      [
        "よね",
        -10.041671752929688
      ],
      [
        "times",
        -10.04232120513916
      ],
      [
        "付",
        -10.043251037597656
      ],
      [
        "▁concern",
        -10.043330192565918
      ],
      [
        "研究",
        -10.04366683959961
      ],
      [
        "▁Depart",
        -10.044060707092283
      ],
      [
        "プラン",
        -10.044191360473633
      ],
      [
        "▁<<",
        -10.04494857788086
      ],
      [
        "learning",
        -10.04584503173828
      ],
      [
        "▁career",
        -10.04644012451172
      ],
      [
        "•",
        -10.046761512756348
      ],
      [
        "▁wonder",
        -10.047202110290527
      ],
      [
        "twitter",
        -10.047383308410645
      ],
      [
        "fully",
        -10.047622680664062
      ],
      [
        "▁simply",
        -10.047950744628906
      ],
      [
        "▁countri",
        -10.04807949066162
      ],
      [
        "body",
        -10.048123359680176
      ],
      [
        "ce",
        -10.048324584960938
      ],
      [
        "▁China",
        -10.04881191253662
      ],
      [
        "']",
        -10.049288749694824
      ],
      [
        "結果",
        -10.049291610717772
      ],
      [
        "▁custom",
        -10.049482345581056
      ],
      [
        "ジ",
        -10.04953384399414
      ],
      [
        "\\\\",
        -10.04971694946289
      ],
      [
        "model",
        -10.049838066101074
      ],
      [
        "すること",
        -10.050121307373049
      ],
      [
        "男",
        -10.050150871276855
      ],
      [
        "▁THE",
        -10.050226211547852
      ],
      [
        "ば",
        -10.051260948181152
      ],
      [
        "たら",
        -10.05136013031006
      ],
      [
        "予約",
        -10.051457405090332
      ],
      [
        "効果",
        -10.05149269104004
      ],
      [
        "▁win",
        -10.05162525177002
      ],
      [
        "▁San",
        -10.052141189575195
      ],
      [
        "▁competi",
        -10.053317070007324
      ],
      [
        "なく",
        -10.053670883178713
      ],
      [
        "▁path",
        -10.053740501403809
      ],
      [
        "▁remain",
        -10.05489730834961
      ],
      [
        "▁isn",
        -10.055399894714355
      ],
      [
        "撮影",
        -10.055624008178713
      ],
      [
        "▁paper",
        -10.055950164794922
      ],
      [
        "▁enjoy",
        -10.056217193603516
      ],
      [
        "▁players",
        -10.056968688964844
      ],
      [
        "それが",
        -10.05722427368164
      ],
      [
        "▁Dr",
        -10.05742073059082
      ],
      [
        "表",
        -10.057575225830078
      ],
      [
        "なし",
        -10.057901382446287
      ],
      [
        "シ",
        -10.0584135055542
      ],
      [
        "▁happen",
        -10.058670043945312
      ],
      [
        "▁TV",
        -10.05878448486328
      ],
      [
        "create",
        -10.060275077819824
      ],
      [
        "さんは",
        -10.060707092285156
      ],
      [
        "node",
        -10.060769081115724
      ],
      [
        "▁instead",
        -10.061363220214844
      ],
      [
        "patients",
        -10.061779022216797
      ],
      [
        "）。",
        -10.06214714050293
      ],
      [
        "先",
        -10.062358856201172
      ],
      [
        "image",
        -10.06279182434082
      ],
      [
        "py",
        -10.06284523010254
      ],
      [
        "ificant",
        -10.062893867492676
      ],
      [
        "est",
        -10.063036918640137
      ],
      [
        "間",
        -10.06326675415039
      ],
      [
        "大阪",
        -10.063277244567873
      ],
      [
        "▁Act",
        -10.064326286315918
      ],
      [
        "config",
        -10.064371109008787
      ],
      [
        "▁itself",
        -10.0650053024292
      ],
      [
        "だが",
        -10.06505298614502
      ],
      [
        "ca",
        -10.06554889678955
      ],
      [
        "スポーツ",
        -10.065887451171877
      ],
      [
        "としては",
        -10.066006660461426
      ],
      [
        "ﾞ",
        -10.066293716430664
      ],
      [
        "機",
        -10.066418647766112
      ],
      [
        "▁worked",
        -10.06729507446289
      ],
      [
        "▁ways",
        -10.067322731018066
      ],
      [
        "▁This",
        -10.067365646362305
      ],
      [
        "download",
        -10.067705154418944
      ],
      [
        "][",
        -10.06882667541504
      ],
      [
        "▁Park",
        -10.068864822387695
      ],
      [
        "section",
        -10.069167137145996
      ],
      [
        "▁w",
        -10.06976318359375
      ],
      [
        "▁growth",
        -10.06989860534668
      ],
      [
        "multiple",
        -10.069953918457031
      ],
      [
        "▁stop",
        -10.070765495300291
      ],
      [
        "もっと",
        -10.071866989135742
      ],
      [
        "フ",
        -10.072023391723633
      ],
      [
        "(),",
        -10.073168754577637
      ],
      [
        "using",
        -10.073945999145508
      ],
      [
        "▁London",
        -10.074658393859863
      ],
      [
        "ことが",
        -10.074796676635742
      ],
      [
        "キ",
        -10.074810981750488
      ],
      [
        "ED",
        -10.075227737426758
      ],
      [
        "開発",
        -10.07524871826172
      ],
      [
        "▁correct",
        -10.0757417678833
      ],
      [
        "やはり",
        -10.075931549072266
      ],
      [
        "エ",
        -10.076424598693848
      ],
      [
        "▁base",
        -10.077499389648438
      ],
      [
        "ページ",
        -10.07780933380127
      ],
      [
        "▁email",
        -10.078113555908203
      ],
      [
        "なかった",
        -10.07907772064209
      ],
      [
        "▁feature",
        -10.079544067382812
      ],
      [
        "\",\"",
        -10.079984664916992
      ],
      [
        "json",
        -10.080039024353027
      ],
      [
        "おすすめ",
        -10.080137252807615
      ],
      [
        "の場合",
        -10.080204963684082
      ],
      [
        "▁screen",
        -10.08039093017578
      ],
      [
        "ms",
        -10.080403327941896
      ],
      [
        "書",
        -10.080802917480469
      ],
      [
        "▁built",
        -10.081210136413574
      ],
      [
        "▁written",
        -10.08127784729004
      ],
      [
        "ative",
        -10.08140754699707
      ],
      [
        "オンライン",
        -10.082388877868652
      ],
      [
        "▁lives",
        -10.08241081237793
      ],
      [
        "▁related",
        -10.083224296569824
      ],
      [
        "mathcal",
        -10.083803176879885
      ],
      [
        "▁Court",
        -10.084026336669922
      ],
      [
        "md",
        -10.084409713745115
      ],
      [
        "▁details",
        -10.084714889526367
      ],
      [
        "▁und",
        -10.084949493408203
      ],
      [
        "la",
        -10.084966659545898
      ],
      [
        "rs",
        -10.0850830078125
      ],
      [
        "refore",
        -10.085363388061523
      ],
      [
        "バ",
        -10.086115837097168
      ],
      [
        "に対する",
        -10.08614730834961
      ],
      [
        "▁prevent",
        -10.087602615356444
      ],
      [
        "記事",
        -10.088224411010742
      ],
      [
        "▁soon",
        -10.088509559631348
      ],
      [
        "▁ensure",
        -10.088809967041016
      ],
      [
        "ことは",
        -10.089001655578612
      ],
      [
        "▁Black",
        -10.089081764221191
      ],
      [
        "あなたの",
        -10.08915901184082
      ],
      [
        "今回",
        -10.090215682983398
      ],
      [
        "reported",
        -10.090336799621582
      ],
      [
        "ians",
        -10.091994285583496
      ],
      [
        "だけでなく",
        -10.092535972595217
      ],
      [
        "▁late",
        -10.092629432678224
      ],
      [
        "曲",
        -10.092894554138184
      ],
      [
        "▁began",
        -10.093581199645996
      ],
      [
        "▁multi",
        -10.09383773803711
      ],
      [
        "の方が",
        -10.094425201416016
      ],
      [
        "あまり",
        -10.094463348388672
      ],
      [
        "▁explain",
        -10.096078872680664
      ],
      [
        "味",
        -10.09620189666748
      ],
      [
        "▁default",
        -10.096514701843262
      ],
      [
        "その他",
        -10.096758842468262
      ],
      [
        "ta",
        -10.096803665161133
      ],
      [
        "▁English",
        -10.097162246704102
      ],
      [
        "▁region",
        -10.097896575927734
      ],
      [
        "recently",
        -10.098156929016112
      ],
      [
        "▁meet",
        -10.098278045654297
      ],
      [
        "ミ",
        -10.09845733642578
      ],
      [
        "▁n",
        -10.09854507446289
      ],
      [
        "java",
        -10.098784446716309
      ],
      [
        "▁Be",
        -10.098799705505373
      ],
      [
        "サポート",
        -10.10084056854248
      ],
      [
        "▁im",
        -10.101597785949709
      ],
      [
        "Add",
        -10.101994514465332
      ],
      [
        "▁rest",
        -10.102590560913086
      ],
      [
        "▁k",
        -10.10269546508789
      ],
      [
        "space",
        -10.103446006774902
      ],
      [
        "positive",
        -10.10439109802246
      ],
      [
        "それを",
        -10.104722023010254
      ],
      [
        "sub",
        -10.10477066040039
      ],
      [
        "Business",
        -10.105609893798828
      ],
      [
        "参加",
        -10.1057767868042
      ],
      [
        "有",
        -10.106853485107422
      ],
      [
        "氏",
        -10.10715103149414
      ],
      [
        "体験",
        -10.10715675354004
      ],
      [
        "▁average",
        -10.107256889343262
      ],
      [
        "▁longer",
        -10.107525825500488
      ],
      [
        "ml",
        -10.108479499816896
      ],
      [
        "バス",
        -10.108542442321776
      ],
      [
        "紹介",
        -10.108814239501951
      ],
      [
        "▁extra",
        -10.109128952026367
      ],
      [
        "なのか",
        -10.109190940856934
      ],
      [
        "])",
        -10.10937786102295
      ],
      [
        "##",
        -10.110011100769045
      ],
      [
        "▁в",
        -10.1107816696167
      ],
      [
        "Time",
        -10.110809326171877
      ],
      [
        "European",
        -10.111250877380373
      ],
      [
        "campaign",
        -10.11181640625
      ],
      [
        "▁users",
        -10.112425804138184
      ],
      [
        "img",
        -10.11281967163086
      ],
      [
        "▁Q",
        -10.113325119018556
      ],
      [
        "mselves",
        -10.1138916015625
      ],
      [
        "▁provid",
        -10.114256858825684
      ],
      [
        "ty",
        -10.114885330200195
      ],
      [
        "あと",
        -10.115968704223633
      ],
      [
        "▁center",
        -10.1160306930542
      ],
      [
        "くらい",
        -10.116866111755373
      ],
      [
        "すぐに",
        -10.117000579833984
      ],
      [
        "▁groups",
        -10.117260932922363
      ],
      [
        "▁adminis",
        -10.117292404174805
      ],
      [
        "▁police",
        -10.117349624633787
      ],
      [
        "▁Mr",
        -10.117402076721191
      ],
      [
        "▁tax",
        -10.11742115020752
      ],
      [
        "施設",
        -10.117464065551758
      ],
      [
        "▁legal",
        -10.117806434631348
      ],
      [
        "▁etc",
        -10.118012428283691
      ],
      [
        "distribu",
        -10.118122100830078
      ],
      [
        "▁saw",
        -10.11872386932373
      ],
      [
        "off",
        -10.118871688842772
      ],
      [
        "▁word",
        -10.119309425354004
      ],
      [
        "自分が",
        -10.11948013305664
      ],
      [
        "define",
        -10.120792388916016
      ],
      [
        "Let",
        -10.121908187866213
      ],
      [
        "port",
        -10.121996879577637
      ],
      [
        "^{",
        -10.122026443481444
      ],
      [
        "progress",
        -10.122312545776367
      ],
      [
        "▁reading",
        -10.12239933013916
      ],
      [
        "正",
        -10.122418403625488
      ],
      [
        "足",
        -10.122676849365234
      ],
      [
        "春",
        -10.123165130615234
      ],
      [
        "▁bad",
        -10.123461723327637
      ],
      [
        "▁(@",
        -10.123495101928713
      ],
      [
        "▁inside",
        -10.123659133911133
      ],
      [
        "Since",
        -10.124025344848633
      ],
      [
        "▁War",
        -10.124100685119627
      ],
      [
        "▁medical",
        -10.12418270111084
      ],
      [
        "▁land",
        -10.124184608459473
      ],
      [
        "ところ",
        -10.125772476196287
      ],
      [
        "▁culture",
        -10.126501083374023
      ],
      [
        "▁describ",
        -10.127275466918944
      ],
      [
        "あの",
        -10.12777614593506
      ],
      [
        "▁Day",
        -10.128087043762209
      ],
      [
        ")$",
        -10.128355026245115
      ],
      [
        "アニメ",
        -10.128807067871094
      ],
      [
        "状況",
        -10.129130363464355
      ],
      [
        "▁write",
        -10.129734992980955
      ],
      [
        "等の",
        -10.12975788116455
      ],
      [
        "▁lower",
        -10.129975318908691
      ],
      [
        "パン",
        -10.130285263061523
      ],
      [
        "▁latest",
        -10.130982398986816
      ],
      [
        "したり",
        -10.131096839904783
      ],
      [
        "Or",
        -10.132680892944336
      ],
      [
        "Item",
        -10.132685661315918
      ],
      [
        "())",
        -10.135647773742676
      ],
      [
        "編",
        -10.13566780090332
      ],
      [
        "御",
        -10.13576889038086
      ],
      [
        "▁Inc",
        -10.13578987121582
      ],
      [
        "メーカー",
        -10.13646125793457
      ],
      [
        "▁Al",
        -10.136489868164062
      ],
      [
        "･",
        -10.13739013671875
      ],
      [
        "not",
        -10.13768196105957
      ],
      [
        "一覧",
        -10.137859344482422
      ],
      [
        "lifornia",
        -10.137866020202637
      ],
      [
        "▁moment",
        -10.138792037963867
      ],
      [
        "米",
        -10.13914394378662
      ],
      [
        "discover",
        -10.140182495117188
      ],
      [
        "ize",
        -10.142019271850586
      ],
      [
        "involved",
        -10.142090797424316
      ],
      [
        "▁Man",
        -10.142732620239258
      ],
      [
        "lib",
        -10.14321517944336
      ],
      [
        "社会",
        -10.143589973449709
      ],
      [
        "▁pass",
        -10.145844459533691
      ],
      [
        "したら",
        -10.14682674407959
      ],
      [
        "すれば",
        -10.146855354309082
      ],
      [
        "場",
        -10.148283004760742
      ],
      [
        "▁consist",
        -10.148780822753906
      ],
      [
        "▁modern",
        -10.149129867553713
      ],
      [
        "ling",
        -10.149750709533691
      ],
      [
        "明",
        -10.14975357055664
      ],
      [
        "au",
        -10.150361061096191
      ],
      [
        "城",
        -10.150683403015137
      ],
      [
        "▁regard",
        -10.15073585510254
      ],
      [
        "view",
        -10.15093231201172
      ],
      [
        "wide",
        -10.150992393493652
      ],
      [
        "例えば",
        -10.151477813720703
      ],
      [
        "業務",
        -10.151941299438477
      ],
      [
        "▁mention",
        -10.152932167053224
      ],
      [
        "Please",
        -10.153462409973145
      ],
      [
        "デ",
        -10.153502464294434
      ],
      [
        "▁pretty",
        -10.153965950012209
      ],
      [
        "相談",
        -10.154647827148438
      ],
      [
        "▁complex",
        -10.154742240905762
      ],
      [
        "年の",
        -10.155056953430176
      ],
      [
        "▁conduct",
        -10.15524959564209
      ],
      [
        "ad",
        -10.155595779418944
      ],
      [
        "Model",
        -10.155606269836426
      ],
      [
        "▁regular",
        -10.155684471130373
      ],
      [
        "▁array",
        -10.155774116516112
      ],
      [
        "designed",
        -10.155795097351074
      ],
      [
        "released",
        -10.15595245361328
      ],
      [
        "らしい",
        -10.155972480773926
      ],
      [
        "ロ",
        -10.156002044677734
      ],
      [
        "▁College",
        -10.156030654907228
      ],
      [
        "例",
        -10.156461715698242
      ],
      [
        "Size",
        -10.156778335571287
      ],
      [
        "post",
        -10.157991409301758
      ],
      [
        "includes",
        -10.158032417297363
      ],
      [
        "営業",
        -10.158676147460938
      ],
      [
        "▁leave",
        -10.158954620361328
      ],
      [
        "支援",
        -10.159400939941406
      ],
      [
        "More",
        -10.159915924072266
      ],
      [
        "rm",
        -10.160327911376951
      ],
      [
        "確認",
        -10.160344123840332
      ],
      [
        "▁books",
        -10.16067123413086
      ],
      [
        "予定",
        -10.160717964172363
      ],
      [
        "▁buy",
        -10.161136627197266
      ],
      [
        "maintain",
        -10.1612548828125
      ],
      [
        "▁leading",
        -10.161293029785156
      ],
      [
        "ency",
        -10.162213325500488
      ],
      [
        "だけど",
        -10.16254997253418
      ],
      [
        "▁Z",
        -10.162665367126465
      ],
      [
        "▁depend",
        -10.162763595581056
      ],
      [
        "もし",
        -10.16323184967041
      ],
      [
        "▁cause",
        -10.163999557495115
      ],
      [
        "▁board",
        -10.164472579956056
      ],
      [
        "row",
        -10.164762496948242
      ],
      [
        "▁OF",
        -10.164865493774414
      ],
      [
        "いました",
        -10.165350914001465
      ],
      [
        "remember",
        -10.16575813293457
      ],
      [
        "group",
        -10.165985107421877
      ],
      [
        "のために",
        -10.166071891784668
      ],
      [
        "的に",
        -10.166393280029297
      ],
      [
        "させる",
        -10.166627883911133
      ],
      [
        "▁talk",
        -10.167505264282228
      ],
      [
        "um",
        -10.167556762695312
      ],
      [
        "len",
        -10.167716026306152
      ],
      [
        "▁context",
        -10.168878555297852
      ],
      [
        "一番",
        -10.16889476776123
      ],
      [
        "▁term",
        -10.170193672180176
      ],
      [
        "▁fire",
        -10.170867919921877
      ],
      [
        "関係",
        -10.170954704284668
      ],
      [
        "Event",
        -10.170988082885742
      ],
      [
        "▁comment",
        -10.171072959899902
      ],
      [
        "馬",
        -10.17194652557373
      ],
      [
        "契約",
        -10.172174453735352
      ],
      [
        "▁lost",
        -10.172313690185549
      ],
      [
        "▁Group",
        -10.172371864318848
      ],
      [
        "iPhone",
        -10.172563552856444
      ],
      [
        "▁Street",
        -10.173057556152344
      ],
      [
        "▁sound",
        -10.1737060546875
      ],
      [
        "evidence",
        -10.17513370513916
      ],
      [
        "高い",
        -10.17518424987793
      ],
      [
        "寺",
        -10.175365447998049
      ],
      [
        "男性",
        -10.175419807434082
      ],
      [
        "Path",
        -10.176962852478027
      ],
      [
        "状態",
        -10.17702579498291
      ],
      [
        "Message",
        -10.177249908447266
      ],
      [
        "▁Trump",
        -10.17851448059082
      ],
      [
        "▁err",
        -10.178665161132812
      ],
      [
        "▁Associa",
        -10.17875862121582
      ],
      [
        "computer",
        -10.179386138916016
      ],
      [
        "terface",
        -10.17959690093994
      ],
      [
        "Google",
        -10.1799955368042
      ],
      [
        "date",
        -10.18044376373291
      ],
      [
        "result",
        -10.180635452270508
      ],
      [
        "▁Me",
        -10.18178939819336
      ],
      [
        "♡",
        -10.181857109069824
      ],
      [
        "configur",
        -10.18209171295166
      ],
      [
        "ちなみに",
        -10.182611465454102
      ],
      [
        "«",
        -10.18272876739502
      ],
      [
        "▁web",
        -10.182880401611328
      ],
      [
        "▁playing",
        -10.1830415725708
      ],
      [
        "▁entire",
        -10.183621406555176
      ],
      [
        "Windows",
        -10.183712005615234
      ],
      [
        "◎",
        -10.18394947052002
      ],
      [
        "▁device",
        -10.184042930603027
      ],
      [
        "▁License",
        -10.184277534484863
      ],
      [
        "▁se",
        -10.184537887573242
      ],
      [
        "CD",
        -10.185044288635254
      ],
      [
        "▁anti",
        -10.18515968322754
      ],
      [
        "しながら",
        -10.18518352508545
      ],
      [
        "経験",
        -10.185240745544434
      ],
      [
        "Response",
        -10.185338973999023
      ],
      [
        "ランキング",
        -10.185989379882812
      ],
      [
        "US",
        -10.18622589111328
      ],
      [
        "▁celebr",
        -10.187281608581545
      ],
      [
        "ifficult",
        -10.18752670288086
      ],
      [
        "作",
        -10.187631607055664
      ],
      [
        "▁states",
        -10.187996864318848
      ],
      [
        "ol",
        -10.188618659973145
      ],
      [
        "私も",
        -10.189311981201172
      ],
      [
        "▁friend",
        -10.18959140777588
      ],
      [
        "ブラック",
        -10.189815521240234
      ],
      [
        "夜",
        -10.190714836120604
      ],
      [
        "量",
        -10.191088676452637
      ],
      [
        "▁played",
        -10.19200611114502
      ],
      [
        "製品",
        -10.192046165466309
      ],
      [
        "[]",
        -10.192919731140137
      ],
      [
        "になり",
        -10.193276405334473
      ],
      [
        "▁hit",
        -10.19371509552002
      ],
      [
        "▁An",
        -10.193814277648926
      ],
      [
        "▁weeks",
        -10.194042205810549
      ],
      [
        "人間",
        -10.194476127624512
      ],
      [
        "立",
        -10.194869041442873
      ],
      [
        "月に",
        -10.194912910461426
      ],
      [
        "▁des",
        -10.195006370544434
      ],
      [
        "а",
        -10.195893287658691
      ],
      [
        "day",
        -10.196189880371094
      ],
      [
        "▁limit",
        -10.196843147277832
      ],
      [
        "変更",
        -10.198458671569824
      ],
      [
        "\"></",
        -10.198655128479004
      ],
      [
        "physical",
        -10.200281143188477
      ],
      [
        "surance",
        -10.200559616088867
      ],
      [
        "variable",
        -10.200636863708496
      ],
      [
        "してください",
        -10.20128059387207
      ],
      [
        "▁measure",
        -10.201345443725586
      ],
      [
        "ニ",
        -10.201478004455566
      ],
      [
        "中国",
        -10.201725959777832
      ],
      [
        "ically",
        -10.20195484161377
      ],
      [
        "巻",
        -10.20202922821045
      ],
      [
        "Also",
        -10.202604293823242
      ],
      [
        "▁complet",
        -10.202791213989258
      ],
      [
        "▁anyone",
        -10.203006744384766
      ],
      [
        "なお",
        -10.203039169311523
      ],
      [
        "▁answer",
        -10.203259468078612
      ],
      [
        "ブ",
        -10.203326225280762
      ],
      [
        "女",
        -10.203520774841309
      ],
      [
        "株",
        -10.204733848571776
      ],
      [
        "Map",
        -10.20494556427002
      ],
      [
        "スーパー",
        -10.205116271972656
      ],
      [
        "海外",
        -10.205138206481934
      ],
      [
        "制度",
        -10.205580711364746
      ],
      [
        "め",
        -10.20561981201172
      ],
      [
        "初",
        -10.206281661987305
      ],
      [
        "旅行",
        -10.206296920776367
      ],
      [
        "▁wide",
        -10.20671558380127
      ],
      [
        "▁trade",
        -10.20728588104248
      ],
      [
        "ネ",
        -10.20819854736328
      ],
      [
        "素材",
        -10.208440780639648
      ],
      [
        "▁manufac",
        -10.20877456665039
      ],
      [
        "グループ",
        -10.20887851715088
      ],
      [
        "▁cover",
        -10.20902156829834
      ],
      [
        "per",
        -10.209460258483888
      ],
      [
        "ガ",
        -10.20956802368164
      ],
      [
        "メール",
        -10.210429191589355
      ],
      [
        "so",
        -10.210489273071287
      ],
      [
        "やっぱり",
        -10.210687637329102
      ],
      [
        "とも",
        -10.21116542816162
      ],
      [
        "▁stay",
        -10.212185859680176
      ],
      [
        "カフェ",
        -10.2124662399292
      ],
      [
        "ニュース",
        -10.21250057220459
      ],
      [
        "box",
        -10.212645530700684
      ],
      [
        "electric",
        -10.21296215057373
      ],
      [
        "谷",
        -10.213619232177734
      ],
      [
        "セ",
        -10.215239524841309
      ],
      [
        "е",
        -10.215292930603027
      ],
      [
        "！　",
        -10.215465545654297
      ],
      [
        "なかなか",
        -10.215951919555664
      ],
      [
        "＊",
        -10.216482162475586
      ],
      [
        "▁band",
        -10.216660499572754
      ],
      [
        "キャンペーン",
        -10.216835975646973
      ],
      [
        "交換",
        -10.217388153076172
      ],
      [
        "les",
        -10.217389106750488
      ],
      [
        "のため",
        -10.217482566833496
      ],
      [
        "▁himself",
        -10.21877670288086
      ],
      [
        "ish",
        -10.21906852722168
      ],
      [
        "static",
        -10.21984577178955
      ],
      [
        "種",
        -10.220016479492188
      ],
      [
        "independ",
        -10.220080375671388
      ],
      [
        "xception",
        -10.220139503479004
      ],
      [
        "src",
        -10.22023868560791
      ],
      [
        "array",
        -10.221311569213867
      ],
      [
        "▁store",
        -10.222198486328123
      ],
      [
        "TV",
        -10.222219467163086
      ],
      [
        "▁option",
        -10.222308158874512
      ],
      [
        "▁levels",
        -10.22272777557373
      ],
      [
        "▁que",
        -10.22291660308838
      ],
      [
        "▁track",
        -10.223167419433594
      ],
      [
        "…。",
        -10.223374366760254
      ],
      [
        "▁block",
        -10.223642349243164
      ],
      [
        "ということで",
        -10.22364330291748
      ],
      [
        "Except",
        -10.224726676940918
      ],
      [
        "Node",
        -10.22500991821289
      ],
      [
        "\"\"\"",
        -10.225030899047852
      ],
      [
        "den",
        -10.2252836227417
      ],
      [
        "▁movie",
        -10.225451469421388
      ],
      [
        "he",
        -10.225955963134766
      ],
      [
        "図",
        -10.226852416992188
      ],
      [
        "official",
        -10.227655410766602
      ],
      [
        "opyright",
        -10.227710723876951
      ],
      [
        "▁Council",
        -10.228241920471191
      ],
      [
        "学校",
        -10.2283296585083
      ],
      [
        "」（",
        -10.22854232788086
      ],
      [
        "ファン",
        -10.228668212890623
      ],
      [
        "カバー",
        -10.228744506835938
      ],
      [
        "true",
        -10.228775024414062
      ],
      [
        "ましょう",
        -10.22922420501709
      ],
      [
        "器",
        -10.229479789733888
      ],
      [
        "▁couple",
        -10.229620933532717
      ],
      [
        "request",
        -10.230445861816406
      ],
      [
        "activity",
        -10.23097038269043
      ],
      [
        "朝",
        -10.23099422454834
      ],
      [
        "ということ",
        -10.231120109558104
      ],
      [
        "Image",
        -10.231672286987305
      ],
      [
        "ドラマ",
        -10.231781005859377
      ],
      [
        "ではない",
        -10.23257541656494
      ],
      [
        "rate",
        -10.232593536376951
      ],
      [
        "▁**",
        -10.233104705810549
      ],
      [
        "▁match",
        -10.23398494720459
      ],
      [
        "▁Home",
        -10.23419952392578
      ],
      [
        "などで",
        -10.234678268432615
      ],
      [
        "▁woman",
        -10.236098289489746
      ],
      [
        "▁command",
        -10.23649787902832
      ],
      [
        "きた",
        -10.23696517944336
      ],
      [
        "やすい",
        -10.237297058105469
      ],
      [
        "年間",
        -10.23752212524414
      ],
      [
        "kg",
        -10.23803424835205
      ],
      [
        "func",
        -10.238691329956056
      ],
      [
        "$.",
        -10.239191055297852
      ],
      [
        "User",
        -10.239333152770996
      ],
      [
        "時の",
        -10.239689826965332
      ],
      [
        "中の",
        -10.239952087402344
      ],
      [
        "▁goal",
        -10.240066528320312
      ],
      [
        "ようです",
        -10.24070167541504
      ],
      [
        "がない",
        -10.241369247436523
      ],
      [
        "▁located",
        -10.242359161376951
      ],
      [
        "テレビ",
        -10.242609977722168
      ],
      [
        "▁r",
        -10.242837905883787
      ],
      [
        "directly",
        -10.24343204498291
      ],
      [
        "つまり",
        -10.243612289428713
      ],
      [
        "▁Service",
        -10.243644714355469
      ],
      [
        "モ",
        -10.244085311889648
      ],
      [
        "........",
        -10.244385719299316
      ],
      [
        "ショップ",
        -10.24462604522705
      ],
      [
        "▁reflect",
        -10.244903564453123
      ],
      [
        "トップ",
        -10.24493408203125
      ],
      [
        "レベル",
        -10.245030403137209
      ],
      [
        "Even",
        -10.245353698730469
      ],
      [
        "ge",
        -10.245407104492188
      ],
      [
        "num",
        -10.245654106140137
      ],
      [
        "▁le",
        -10.245664596557615
      ],
      [
        "メ",
        -10.245681762695312
      ],
      [
        "▁loss",
        -10.245756149291992
      ],
      [
        "次",
        -10.24604034423828
      ],
      [
        "▁digital",
        -10.246255874633787
      ],
      [
        "�",
        -10.24660873413086
      ],
      [
        "Co",
        -10.24704933166504
      ],
      [
        "é",
        -10.24706745147705
      ],
      [
        "サン",
        -10.247617721557615
      ],
      [
        "Class",
        -10.24803638458252
      ],
      [
        "▁player",
        -10.248435974121094
      ],
      [
        "直",
        -10.249040603637695
      ],
      [
        "▁initial",
        -10.249395370483398
      ],
      [
        "カット",
        -10.249483108520508
      ],
      [
        "をして",
        -10.249833106994627
      ],
      [
        "Resource",
        -10.249945640563965
      ],
      [
        "テ",
        -10.25025749206543
      ],
      [
        "▁science",
        -10.250824928283691
      ],
      [
        "col",
        -10.252201080322266
      ],
      [
        "▁led",
        -10.25226879119873
      ],
      [
        "▁paramet",
        -10.252795219421388
      ],
      [
        "英語",
        -10.253524780273438
      ],
      [
        "▁It",
        -10.253661155700684
      ],
      [
        "▁ask",
        -10.253695487976074
      ],
      [
        "Index",
        -10.25400161743164
      ],
      [
        "病院",
        -10.254133224487305
      ],
      [
        "status",
        -10.254180908203123
      ],
      [
        "Read",
        -10.254704475402832
      ],
      [
        "丸",
        -10.254865646362305
      ],
      [
        "▁phone",
        -10.255209922790527
      ],
      [
        "パ",
        -10.255617141723633
      ],
      [
        "▁basic",
        -10.25638484954834
      ],
      [
        "率",
        -10.25694465637207
      ],
      [
        "et",
        -10.25753402709961
      ],
      [
        "▁oil",
        -10.258145332336426
      ],
      [
        "大会",
        -10.258315086364746
      ],
      [
        "表示",
        -10.259255409240724
      ],
      [
        "cultural",
        -10.259321212768556
      ],
      [
        "▁element",
        -10.259696006774902
      ],
      [
        "工事",
        -10.26002025604248
      ],
      [
        "カー",
        -10.260248184204102
      ],
      [
        "ツ",
        -10.261085510253906
      ],
      [
        "下さい",
        -10.261319160461426
      ],
      [
        "▁attempt",
        -10.262243270874023
      ],
      [
        "▁com",
        -10.262944221496582
      ],
      [
        "▁Science",
        -10.263177871704102
      ],
      [
        "Why",
        -10.263398170471191
      ],
      [
        "▁Y",
        -10.263693809509276
      ],
      [
        "▁double",
        -10.263967514038086
      ],
      [
        "その後",
        -10.26451015472412
      ],
      [
        "れ",
        -10.265042304992676
      ],
      [
        "開催",
        -10.265408515930176
      ],
      [
        "だろう",
        -10.265875816345217
      ],
      [
        "▁disease",
        -10.265936851501465
      ],
      [
        "たり",
        -10.265981674194336
      ],
      [
        "nstitute",
        -10.266128540039062
      ],
      [
        "▁Europe",
        -10.267208099365234
      ],
      [
        "▁shown",
        -10.267590522766112
      ],
      [
        "ティ",
        -10.268954277038574
      ],
      [
        "sum",
        -10.268996238708496
      ],
      [
        "ライト",
        -10.26988124847412
      ],
      [
        "されています",
        -10.270184516906738
      ],
      [
        "学",
        -10.270222663879396
      ],
      [
        "▁town",
        -10.270367622375488
      ],
      [
        "▁h",
        -10.271852493286133
      ],
      [
        "チーム",
        -10.272357940673828
      ],
      [
        "tration",
        -10.27390193939209
      ],
      [
        "▁Canada",
        -10.274069786071776
      ],
      [
        "されます",
        -10.274352073669434
      ],
      [
        "wise",
        -10.27574348449707
      ],
      [
        "▁choose",
        -10.27613925933838
      ],
      [
        "とき",
        -10.276351928710938
      ],
      [
        "core",
        -10.276515007019045
      ],
      [
        "ential",
        -10.276599884033203
      ],
      [
        "期間",
        -10.276779174804688
      ],
      [
        "err",
        -10.27716064453125
      ],
      [
        "open",
        -10.277178764343262
      ],
      [
        "sociated",
        -10.27729320526123
      ],
      [
        "なぜ",
        -10.278036117553713
      ],
      [
        "君",
        -10.278742790222168
      ],
      [
        "greement",
        -10.279623985290527
      ],
      [
        "▁usually",
        -10.279678344726562
      ],
      [
        "期",
        -10.27985668182373
      ],
      [
        "▁wrong",
        -10.279983520507812
      ],
      [
        "Many",
        -10.280051231384276
      ],
      [
        "eq",
        -10.2813081741333
      ],
      [
        "count",
        -10.281781196594238
      ],
      [
        "カメラ",
        -10.28262996673584
      ],
      [
        "Code",
        -10.282939910888672
      ],
      [
        "▁ideas",
        -10.283114433288574
      ],
      [
        "▁East",
        -10.28312873840332
      ],
      [
        "ntation",
        -10.283302307128906
      ],
      [
        "▁goes",
        -10.283370018005373
      ],
      [
        "スマホ",
        -10.28341579437256
      ],
      [
        "▁ready",
        -10.283855438232422
      ],
      [
        "▁stage",
        -10.2846097946167
      ],
      [
        "▁accept",
        -10.28474235534668
      ],
      [
        "rd",
        -10.285229682922363
      ],
      [
        "▁del",
        -10.285277366638184
      ],
      [
        "》",
        -10.285602569580078
      ],
      [
        "になりました",
        -10.285627365112305
      ],
      [
        "《",
        -10.285691261291504
      ],
      [
        "▁watch",
        -10.285858154296877
      ],
      [
        "summary",
        -10.285862922668455
      ],
      [
        "▁parents",
        -10.286160469055176
      ],
      [
        "▁looks",
        -10.28686237335205
      ],
      [
        "km",
        -10.286954879760742
      ],
      [
        "$,",
        -10.28745937347412
      ],
      [
        "選",
        -10.28799819946289
      ],
      [
        "▁nature",
        -10.288443565368652
      ],
      [
        "▁exist",
        -10.28942584991455
      ],
      [
        "contribu",
        -10.28970718383789
      ],
      [
        "更新",
        -10.289734840393066
      ],
      [
        "▁copy",
        -10.290064811706545
      ],
      [
        "current",
        -10.290075302124023
      ],
      [
        "ケア",
        -10.290193557739258
      ],
      [
        "hospital",
        -10.290228843688965
      ],
      [
        "▁kids",
        -10.290228843688965
      ],
      [
        "default",
        -10.290657997131348
      ],
      [
        "リング",
        -10.290749549865724
      ],
      [
        "▁mother",
        -10.290777206420898
      ],
      [
        "▁serious",
        -10.290783882141112
      ],
      [
        "▁plans",
        -10.290847778320312
      ],
      [
        "provides",
        -10.291525840759276
      ],
      [
        "IT",
        -10.291964530944824
      ],
      [
        "▁purpose",
        -10.2920560836792
      ],
      [
        "▁types",
        -10.292158126831056
      ],
      [
        "ates",
        -10.29237461090088
      ],
      [
        "button",
        -10.292566299438477
      ],
      [
        "▁status",
        -10.292892456054688
      ],
      [
        "▁link",
        -10.293877601623535
      ],
      [
        "取り",
        -10.294097900390623
      ],
      [
        "通り",
        -10.294598579406738
      ],
      [
        "理由",
        -10.295038223266602
      ],
      [
        "チ",
        -10.295184135437012
      ],
      [
        "行動",
        -10.295238494873049
      ],
      [
        "シャツ",
        -10.295893669128418
      ],
      [
        "▁High",
        -10.29694938659668
      ],
      [
        "家族",
        -10.297908782958984
      ],
      [
        "しております",
        -10.298107147216797
      ],
      [
        "▁guide",
        -10.298989295959473
      ],
      [
        "▁billion",
        -10.299270629882812
      ],
      [
        "−",
        -10.29942798614502
      ],
      [
        "▁worth",
        -10.299571990966797
      ],
      [
        "▁sent",
        -10.299647331237791
      ],
      [
        "最大",
        -10.30016040802002
      ],
      [
        "バッグ",
        -10.300765991210938
      ],
      [
        "▁summer",
        -10.30123519897461
      ],
      [
        "ω",
        -10.301396369934082
      ],
      [
        "方は",
        -10.302079200744627
      ],
      [
        "入",
        -10.302624702453612
      ],
      [
        "▁road",
        -10.30272388458252
      ],
      [
        "▁extens",
        -10.303411483764648
      ],
      [
        "▁safety",
        -10.303525924682615
      ],
      [
        "▁Art",
        -10.303668022155762
      ],
      [
        "料金",
        -10.30394172668457
      ],
      [
        "▁machine",
        -10.304086685180664
      ],
      [
        "spective",
        -10.304494857788086
      ],
      [
        "ソフト",
        -10.304888725280762
      ],
      [
        "▁immedia",
        -10.304929733276367
      ],
      [
        "のも",
        -10.305006980895996
      ],
      [
        "base",
        -10.305631637573242
      ],
      [
        "ka",
        -10.305723190307615
      ],
      [
        "可能",
        -10.306608200073242
      ],
      [
        "military",
        -10.306678771972656
      ],
      [
        "▁capital",
        -10.306697845458984
      ],
      [
        "だし",
        -10.306808471679688
      ],
      [
        "ator",
        -10.307001113891602
      ],
      [
        "▁General",
        -10.307047843933104
      ],
      [
        "井",
        -10.307299613952637
      ],
      [
        "nu",
        -10.307491302490234
      ],
      [
        "公開",
        -10.307727813720703
      ],
      [
        "コン",
        -10.308058738708496
      ],
      [
        "▁allows",
        -10.30831813812256
      ],
      [
        "条件",
        -10.308561325073242
      ],
      [
        "▁input",
        -10.30874729156494
      ],
      [
        "ingly",
        -10.308753967285156
      ],
      [
        "URL",
        -10.308799743652344
      ],
      [
        "util",
        -10.308812141418455
      ],
      [
        "結婚",
        -10.308999061584473
      ],
      [
        "年度",
        -10.309069633483888
      ],
      [
        "mmercial",
        -10.30909824371338
      ],
      [
        "Color",
        -10.309303283691406
      ],
      [
        "しかも",
        -10.309468269348145
      ],
      [
        "アイテム",
        -10.309534072875977
      ],
      [
        "▁ground",
        -10.30956745147705
      ],
      [
        "アイ",
        -10.309656143188477
      ],
      [
        "塩",
        -10.310381889343262
      ],
      [
        "▁benefit",
        -10.311213493347168
      ],
      [
        "▁nil",
        -10.311871528625488
      ],
      [
        "放送",
        -10.311883926391602
      ],
      [
        "計画",
        -10.312682151794434
      ],
      [
        "みんな",
        -10.31309700012207
      ],
      [
        "多",
        -10.313426971435549
      ],
      [
        "▁sales",
        -10.313889503479004
      ],
      [
        "▁quickly",
        -10.314126968383787
      ],
      [
        "▁son",
        -10.314218521118164
      ],
      [
        "▁surface",
        -10.316032409667969
      ],
      [
        "format",
        -10.316134452819824
      ],
      [
        "▁cut",
        -10.31616497039795
      ],
      [
        "作り",
        -10.316350936889648
      ],
      [
        "▁gave",
        -10.316564559936523
      ],
      [
        "を行う",
        -10.317026138305664
      ],
      [
        "▁update",
        -10.31702995300293
      ],
      [
        "align",
        -10.317126274108888
      ],
      [
        "▁org",
        -10.317251205444336
      ],
      [
        "ler",
        -10.317391395568848
      ],
      [
        "▁Mo",
        -10.317588806152344
      ],
      [
        "これが",
        -10.317696571350098
      ],
      [
        "package",
        -10.317734718322754
      ],
      [
        "であれば",
        -10.317791938781738
      ],
      [
        "▁brand",
        -10.317873001098633
      ],
      [
        "▁Of",
        -10.319068908691406
      ],
      [
        "▁choice",
        -10.319522857666016
      ],
      [
        "we",
        -10.319575309753418
      ],
      [
        "▁client",
        -10.319697380065918
      ],
      [
        "▁whose",
        -10.319873809814451
      ],
      [
        "nnounced",
        -10.319875717163086
      ],
      [
        "投資",
        -10.319911003112791
      ],
      [
        "熱",
        -10.320151329040527
      ],
      [
        "▁British",
        -10.320505142211914
      ],
      [
        "ビ",
        -10.320595741271973
      ],
      [
        "▁Law",
        -10.320895195007324
      ],
      [
        "次の",
        -10.321688652038574
      ],
      [
        "ja",
        -10.321826934814451
      ],
      [
        "strength",
        -10.321907997131348
      ],
      [
        "安",
        -10.322108268737791
      ],
      [
        "page",
        -10.322111129760742
      ],
      [
        "星",
        -10.322355270385742
      ],
      [
        "▁o",
        -10.322806358337402
      ],
      [
        "夢",
        -10.322845458984377
      ],
      [
        "▁NULL",
        -10.322900772094728
      ],
      [
        "開始",
        -10.323850631713867
      ],
      [
        "▁chance",
        -10.324334144592283
      ],
      [
        "\":\"",
        -10.324522972106934
      ],
      [
        "青",
        -10.324560165405272
      ],
      [
        "▁hold",
        -10.325043678283691
      ],
      [
        "ぞ",
        -10.325045585632324
      ],
      [
        "初めて",
        -10.325681686401367
      ],
      [
        "▁achieve",
        -10.325867652893066
      ],
      [
        "internal",
        -10.326003074645996
      ],
      [
        "De",
        -10.32640266418457
      ],
      [
        "se",
        -10.326449394226074
      ],
      [
        "problems",
        -10.326468467712402
      ],
      [
        "~\\",
        -10.32716178894043
      ],
      [
        "関連",
        -10.327346801757812
      ],
      [
        "入り",
        -10.327609062194824
      ],
      [
        "レビュー",
        -10.327759742736816
      ],
      [
        "▁stories",
        -10.32777500152588
      ],
      [
        "コード",
        -10.327781677246094
      ],
      [
        "空",
        -10.328069686889648
      ],
      [
        "▁red",
        -10.32873821258545
      ],
      [
        "▁born",
        -10.328973770141602
      ],
      [
        "▁Company",
        -10.329190254211426
      ],
      [
        "Just",
        -10.329222679138184
      ],
      [
        "室",
        -10.32943344116211
      ],
      [
        "これから",
        -10.32943630218506
      ],
      [
        "▁morning",
        -10.32954216003418
      ],
      [
        "house",
        -10.32957935333252
      ],
      [
        "read",
        -10.329747200012209
      ],
      [
        "温泉",
        -10.330117225646973
      ],
      [
        "▁Google",
        -10.330327033996582
      ],
      [
        "されて",
        -10.330705642700195
      ],
      [
        "Property",
        -10.330934524536133
      ],
      [
        "sh",
        -10.33098316192627
      ],
      [
        "ramework",
        -10.331124305725098
      ],
      [
        "▁met",
        -10.33163833618164
      ],
      [
        "See",
        -10.332281112670898
      ],
      [
        "▁towards",
        -10.332427024841309
      ],
      [
        "感じ",
        -10.33273220062256
      ],
      [
        "pre",
        -10.333173751831056
      ],
      [
        "▁costs",
        -10.333651542663574
      ],
      [
        "にして",
        -10.333670616149902
      ],
      [
        "があった",
        -10.33376693725586
      ],
      [
        "ttention",
        -10.333812713623049
      ],
      [
        "con",
        -10.335945129394531
      ],
      [
        "Field",
        -10.33608627319336
      ],
      [
        "▁drive",
        -10.336098670959473
      ],
      [
        "ものです",
        -10.336491584777832
      ],
      [
        "▁Public",
        -10.336734771728516
      ],
      [
        "First",
        -10.337539672851562
      ],
      [
        "tic",
        -10.337642669677734
      ],
      [
        "▁father",
        -10.337692260742188
      ],
      [
        "▁univers",
        -10.337966918945312
      ],
      [
        "uk",
        -10.338221549987791
      ],
      [
        "産",
        -10.33847713470459
      ],
      [
        "▁__",
        -10.33852767944336
      ],
      [
        "▁items",
        -10.338993072509766
      ],
      [
        "▁gives",
        -10.339034080505373
      ],
      [
        "▁wasn",
        -10.339324951171877
      ],
      [
        "▁regulat",
        -10.340659141540527
      ],
      [
        "ヤ",
        -10.340858459472656
      ],
      [
        "il",
        -10.34165382385254
      ],
      [
        "▁saying",
        -10.342296600341797
      ],
      [
        "来",
        -10.342473983764648
      ],
      [
        "運動",
        -10.343289375305176
      ],
      [
        "）　",
        -10.343391418457031
      ],
      [
        "ro",
        -10.34345531463623
      ],
      [
        "雨",
        -10.343511581420898
      ],
      [
        "▁On",
        -10.343710899353027
      ],
      [
        "▁save",
        -10.343779563903809
      ],
      [
        "医療",
        -10.34417724609375
      ],
      [
        "▼",
        -10.34438133239746
      ],
      [
        "先生",
        -10.344552993774414
      ],
      [
        "▁song",
        -10.344614028930664
      ],
      [
        "▁apply",
        -10.34481143951416
      ],
      [
        "▁skills",
        -10.345314979553224
      ],
      [
        "▁decided",
        -10.345852851867676
      ],
      [
        "▁White",
        -10.346028327941896
      ],
      [
        "▁brought",
        -10.346230506896973
      ],
      [
        "非常に",
        -10.3466215133667
      ],
      [
        "▁cell",
        -10.347217559814451
      ],
      [
        "コメント",
        -10.347803115844728
      ],
      [
        "block",
        -10.347892761230469
      ],
      [
        "重",
        -10.348094940185549
      ],
      [
        "▁David",
        -10.348201751708984
      ],
      [
        "▁normal",
        -10.349287986755373
      ],
      [
        "企画",
        -10.349724769592283
      ],
      [
        "ts",
        -10.349845886230469
      ],
      [
        "more",
        -10.349895477294922
      ],
      [
        "韓国",
        -10.349946975708008
      ],
      [
        "階",
        -10.35071086883545
      ],
      [
        "▁seem",
        -10.350781440734863
      ],
      [
        "▁studies",
        -10.351004600524902
      ],
      [
        "組",
        -10.351399421691896
      ],
      [
        "▁safe",
        -10.352309226989746
      ],
      [
        "▁album",
        -10.352344512939451
      ],
      [
        "Saturday",
        -10.35240077972412
      ],
      [
        "猫",
        -10.352927207946776
      ],
      [
        "im",
        -10.35293960571289
      ],
      [
        "▁happy",
        -10.352983474731444
      ],
      [
        "ただし",
        -10.353158950805664
      ],
      [
        "Count",
        -10.353178024291992
      ],
      [
        "▁Washing",
        -10.353256225585938
      ],
      [
        "ファイル",
        -10.353466987609863
      ],
      [
        "チェック",
        -10.353635787963867
      ],
      [
        "▁Govern",
        -10.353660583496094
      ],
      [
        "倍",
        -10.354074478149414
      ],
      [
        "place",
        -10.354113578796388
      ],
      [
        "▁felt",
        -10.354342460632324
      ],
      [
        "薬",
        -10.355255126953123
      ],
      [
        "see",
        -10.355545043945312
      ],
      [
        "専用",
        -10.355587005615234
      ],
      [
        "▁And",
        -10.356133460998535
      ],
      [
        "試験",
        -10.356172561645508
      ],
      [
        "ずっと",
        -10.356437683105469
      ],
      [
        "税込",
        -10.356847763061523
      ],
      [
        "どう",
        -10.356911659240724
      ],
      [
        "スタイル",
        -10.357322692871094
      ],
      [
        "▁limited",
        -10.35855484008789
      ],
      [
        "してる",
        -10.358845710754396
      ],
      [
        "健康",
        -10.358975410461426
      ],
      [
        "Title",
        -10.359125137329102
      ],
      [
        "identifi",
        -10.359160423278809
      ],
      [
        "一緒に",
        -10.360733032226562
      ],
      [
        "database",
        -10.36080551147461
      ],
      [
        "▁agree",
        -10.360851287841797
      ],
      [
        "tely",
        -10.360858917236328
      ],
      [
        "▁Commun",
        -10.361066818237305
      ],
      [
        "run",
        -10.362061500549316
      ],
      [
        "ライン",
        -10.363007545471191
      ],
      [
        "そういう",
        -10.363351821899414
      ],
      [
        "ustralia",
        -10.363444328308104
      ],
      [
        "すぐ",
        -10.36345672607422
      ],
      [
        "自分で",
        -10.36371898651123
      ],
      [
        "▁Friday",
        -10.36435890197754
      ],
      [
        "men",
        -10.364700317382812
      ],
      [
        "client",
        -10.364859580993652
      ],
      [
        "必ず",
        -10.365602493286133
      ],
      [
        "選手",
        -10.365968704223633
      ],
      [
        "main",
        -10.36620807647705
      ],
      [
        "selected",
        -10.366307258605955
      ],
      [
        "のための",
        -10.366320610046388
      ],
      [
        "質問",
        -10.367060661315918
      ],
      [
        "ホーム",
        -10.36712646484375
      ],
      [
        "operator",
        -10.367233276367188
      ],
      [
        "▁models",
        -10.367361068725586
      ],
      [
        "▁beginn",
        -10.367528915405272
      ],
      [
        "名前",
        -10.36760711669922
      ],
      [
        "▁auto",
        -10.367703437805176
      ],
      [
        "はこちら",
        -10.368040084838867
      ],
      [
        "北海道",
        -10.368565559387209
      ],
      [
        "［",
        -10.368824005126951
      ],
      [
        "歌",
        -10.369756698608398
      ],
      [
        "▁facilit",
        -10.369828224182127
      ],
      [
        "電話",
        -10.369969367980955
      ],
      [
        "箱",
        -10.370393753051758
      ],
      [
        "▁Office",
        -10.370478630065918
      ],
      [
        "Your",
        -10.371051788330078
      ],
      [
        "▁hear",
        -10.372021675109863
      ],
      [
        "せ",
        -10.37243938446045
      ],
      [
        "通",
        -10.372842788696287
      ],
      [
        "イメージ",
        -10.372864723205566
      ],
      [
        "▁schools",
        -10.37296199798584
      ],
      [
        "▁force",
        -10.373174667358398
      ],
      [
        "▁send",
        -10.373221397399902
      ],
      [
        "side",
        -10.373397827148438
      ],
      [
        "▁fine",
        -10.373881340026855
      ],
      [
        "郡",
        -10.373978614807127
      ],
      [
        "Next",
        -10.374305725097656
      ],
      [
        "かも",
        -10.374484062194824
      ],
      [
        "▁credit",
        -10.374737739562988
      ],
      [
        "］",
        -10.374929428100586
      ],
      [
        "はないでしょうか",
        -10.374993324279783
      ],
      [
        "▁card",
        -10.375167846679688
      ],
      [
        "▁reach",
        -10.375800132751465
      ],
      [
        "gen",
        -10.37613296508789
      ],
      [
        "gh",
        -10.376171112060549
      ],
      [
        "京都",
        -10.376423835754396
      ],
      [
        "▁practic",
        -10.376826286315918
      ],
      [
        "▁college",
        -10.37709903717041
      ],
      [
        "▁Board",
        -10.37712860107422
      ],
      [
        "Her",
        -10.377299308776855
      ],
      [
        "Be",
        -10.377473831176758
      ],
      [
        "フル",
        -10.377521514892578
      ],
      [
        "公式",
        -10.37773609161377
      ],
      [
        "▁green",
        -10.378169059753418
      ],
      [
        "icularly",
        -10.378890991210938
      ],
      [
        "term",
        -10.379704475402832
      ],
      [
        "ee",
        -10.379731178283691
      ],
      [
        "▁easily",
        -10.379738807678224
      ],
      [
        "検査",
        -10.379819869995115
      ],
      [
        "Config",
        -10.380722045898438
      ],
      [
        "▁map",
        -10.381392478942873
      ],
      [
        "などを",
        -10.381631851196287
      ],
      [
        "▁files",
        -10.381841659545898
      ],
      [
        "center",
        -10.382692337036133
      ],
      [
        "active",
        -10.382720947265623
      ],
      [
        "favorite",
        -10.383027076721191
      ],
      [
        "families",
        -10.383076667785645
      ],
      [
        "▁comfort",
        -10.383118629455566
      ],
      [
        "LINE",
        -10.38335418701172
      ],
      [
        "国際",
        -10.383405685424805
      ],
      [
        "ると",
        -10.383450508117676
      ],
      [
        "としても",
        -10.383455276489258
      ],
      [
        "区",
        -10.383498191833496
      ],
      [
        "んで",
        -10.384166717529297
      ],
      [
        "▁parts",
        -10.384173393249512
      ],
      [
        "existing",
        -10.384382247924805
      ],
      [
        "Table",
        -10.384441375732422
      ],
      [
        "ち",
        -10.384703636169434
      ],
      [
        "顔",
        -10.384940147399902
      ],
      [
        "▁effects",
        -10.38581371307373
      ],
      [
        "creating",
        -10.386090278625488
      ],
      [
        "毛",
        -10.386093139648438
      ],
      [
        "経営",
        -10.386427879333496
      ],
      [
        "オープン",
        -10.386788368225098
      ],
      [
        "▁convers",
        -10.387561798095703
      ],
      [
        "しましょう",
        -10.387877464294434
      ],
      [
        "ディ",
        -10.388280868530272
      ],
      [
        "▁My",
        -10.388304710388184
      ],
      [
        "ビル",
        -10.388671875
      ],
      [
        "▁meaning",
        -10.388720512390137
      ],
      [
        "方が",
        -10.390178680419922
      ],
      [
        "▁changed",
        -10.390186309814451
      ],
      [
        "宮",
        -10.390558242797852
      ],
      [
        "terview",
        -10.39105224609375
      ],
      [
        "▁heard",
        -10.39111614227295
      ],
      [
        "▁degree",
        -10.39113998413086
      ],
      [
        "プロジェクト",
        -10.39117431640625
      ],
      [
        "▁highly",
        -10.391714096069336
      ],
      [
        "ko",
        -10.39189624786377
      ],
      [
        "tributed",
        -10.392087936401367
      ],
      [
        "られる",
        -10.392202377319336
      ],
      [
        "ではありません",
        -10.392909049987791
      ],
      [
        "like",
        -10.392913818359377
      ],
      [
        "グ",
        -10.392921447753906
      ],
      [
        "時は",
        -10.393394470214844
      ],
      [
        "CM",
        -10.393415451049805
      ],
      [
        "▁fast",
        -10.393489837646484
      ],
      [
        "GB",
        -10.393881797790527
      ],
      [
        "png",
        -10.393921852111816
      ],
      [
        "ir",
        -10.394105911254885
      ],
      [
        "ライブ",
        -10.394362449645996
      ],
      [
        "vestment",
        -10.394570350646973
      ],
      [
        "当",
        -10.394822120666504
      ],
      [
        "Most",
        -10.394947052001951
      ],
      [
        "用の",
        -10.395011901855469
      ],
      [
        "▁nation",
        -10.395234107971191
      ],
      [
        "▁act",
        -10.395285606384276
      ],
      [
        "yourself",
        -10.395800590515137
      ],
      [
        "▁extreme",
        -10.39595890045166
      ],
      [
        "Manager",
        -10.396852493286133
      ],
      [
        "▁variety",
        -10.397050857543944
      ],
      [
        "なり",
        -10.397068977355955
      ],
      [
        "勉強",
        -10.397497177124023
      ],
      [
        "再",
        -10.397968292236328
      ],
      [
        "講座",
        -10.398448944091797
      ],
      [
        "message",
        -10.398618698120115
      ],
      [
        "アメリカ",
        -10.398947715759276
      ],
      [
        "dir",
        -10.399081230163574
      ],
      [
        "肉",
        -10.399086952209473
      ],
      [
        "処理",
        -10.399211883544922
      ],
      [
        "こう",
        -10.399333000183104
      ],
      [
        "桜",
        -10.399667739868164
      ],
      [
        "▁giving",
        -10.399690628051758
      ],
      [
        "▁He",
        -10.399919509887695
      ],
      [
        "を見て",
        -10.40013027191162
      ],
      [
        "学習",
        -10.400501251220703
      ],
      [
        "▁tried",
        -10.400930404663086
      ],
      [
        "①",
        -10.400935173034668
      ],
      [
        "▁execut",
        -10.401104927062988
      ],
      [
        "発表",
        -10.401442527770996
      ],
      [
        "ダイエット",
        -10.401582717895508
      ],
      [
        "Client",
        -10.401930809020996
      ],
      [
        "でしたが",
        -10.402005195617676
      ],
      [
        "実",
        -10.402179718017578
      ],
      [
        "Source",
        -10.402446746826172
      ],
      [
        "Amazon",
        -10.402470588684082
      ],
      [
        "Services",
        -10.402626037597656
      ],
      [
        "ケ",
        -10.403427124023438
      ],
      [
        "考え",
        -10.403635025024414
      ],
      [
        "▁prior",
        -10.403865814208984
      ],
      [
        "太",
        -10.40404224395752
      ],
      [
        "▁named",
        -10.404104232788086
      ],
      [
        "pressure",
        -10.404279708862305
      ],
      [
        "df",
        -10.404340744018556
      ],
      [
        "▁picture",
        -10.404525756835938
      ],
      [
        "way",
        -10.40463161468506
      ],
      [
        "▁confirm",
        -10.404650688171388
      ],
      [
        "子供",
        -10.404813766479492
      ],
      [
        "ツール",
        -10.404889106750488
      ],
      [
        "lang",
        -10.404898643493652
      ],
      [
        "中に",
        -10.40511989593506
      ],
      [
        "movement",
        -10.405295372009276
      ],
      [
        "filename",
        -10.405978202819824
      ],
      [
        "リー",
        -10.406036376953123
      ],
      [
        "種類",
        -10.406291007995604
      ],
      [
        "だと思います",
        -10.406556129455566
      ],
      [
        "さて",
        -10.40697956085205
      ],
      [
        "時代",
        -10.407145500183104
      ],
      [
        "point",
        -10.40786075592041
      ],
      [
        "いく",
        -10.40786361694336
      ],
      [
        "勝",
        -10.408062934875488
      ],
      [
        "▁huge",
        -10.40806484222412
      ],
      [
        "エリア",
        -10.408489227294922
      ],
      [
        "font",
        -10.409246444702148
      ],
      [
        "ci",
        -10.409252166748049
      ],
      [
        "▁effici",
        -10.411367416381836
      ],
      [
        "▁cross",
        -10.411681175231934
      ],
      [
        "▁unit",
        -10.411775588989258
      ],
      [
        "広告",
        -10.411831855773926
      ],
      [
        "ants",
        -10.41207790374756
      ],
      [
        "System",
        -10.41221046447754
      ],
      [
        "みたいな",
        -10.412641525268556
      ],
      [
        "▁Green",
        -10.412664413452148
      ],
      [
        "Although",
        -10.41268825531006
      ],
      [
        "▁output",
        -10.412871360778809
      ],
      [
        "改善",
        -10.41347885131836
      ],
      [
        "となり",
        -10.414182662963867
      ],
      [
        "▁Music",
        -10.414228439331056
      ],
      [
        "▁java",
        -10.414350509643556
      ],
      [
        "▁Develop",
        -10.414551734924316
      ],
      [
        "▁Do",
        -10.41487979888916
      ],
      [
        "ウ",
        -10.415397644042969
      ],
      [
        "▁attack",
        -10.415534973144531
      ],
      [
        "di",
        -10.415972709655762
      ],
      [
        "アン",
        -10.416361808776855
      ],
      [
        "▁note",
        -10.416626930236816
      ],
      [
        "成",
        -10.41684627532959
      ],
      [
        "HP",
        -10.416868209838867
      ],
      [
        "▁institu",
        -10.416916847229004
      ],
      [
        "部分",
        -10.41714859008789
      ],
      [
        "height",
        -10.417439460754396
      ],
      [
        "▁Techn",
        -10.417470932006836
      ],
      [
        "▁setting",
        -10.417499542236328
      ],
      [
        "category",
        -10.417637825012209
      ],
      [
        "▁Le",
        -10.417753219604492
      ],
      [
        "▁Get",
        -10.417884826660156
      ],
      [
        "▁fall",
        -10.417987823486328
      ],
      [
        "▁tempera",
        -10.418049812316896
      ],
      [
        "▁race",
        -10.418169975280762
      ],
      [
        "必要",
        -10.41823673248291
      ],
      [
        "っている",
        -10.418386459350586
      ],
      [
        "PS",
        -10.418536186218262
      ],
      [
        "Result",
        -10.418622016906738
      ],
      [
        "({",
        -10.418902397155762
      ],
      [
        "ui",
        -10.419031143188477
      ],
      [
        "スタッフ",
        -10.419075012207031
      ],
      [
        "▁active",
        -10.419354438781738
      ],
      [
        "秋",
        -10.420093536376951
      ],
      [
        "▁+=",
        -10.420845985412598
      ],
      [
        "argument",
        -10.422889709472656
      ],
      [
        "▁allowed",
        -10.423492431640623
      ],
      [
        "前の",
        -10.42400360107422
      ],
      [
        "雪",
        -10.424254417419434
      ],
      [
        "説明",
        -10.424663543701172
      ],
      [
        "を持つ",
        -10.42512035369873
      ],
      [
        "となった",
        -10.425548553466797
      ],
      [
        "▁II",
        -10.42605972290039
      ],
      [
        "dvantage",
        -10.42617893218994
      ],
      [
        "▁ability",
        -10.426836013793944
      ],
      [
        "プ",
        -10.428343772888184
      ],
      [
        "が多い",
        -10.428431510925291
      ],
      [
        "ac",
        -10.428671836853027
      ],
      [
        "▁piece",
        -10.42918586730957
      ],
      [
        "▁clients",
        -10.429243087768556
      ],
      [
        "もあります",
        -10.430060386657717
      ],
      [
        "対象",
        -10.430103302001951
      ],
      [
        "そのまま",
        -10.430232048034668
      ],
      [
        "▁predict",
        -10.430464744567873
[...]
